[PAD]
[UNK]
[CLS]
[SEP]
[MASK]
!
"
#
$
%
&
'
(
)
*
+
,
-
.
/
0
1
2
3
4
5
6
7
8
9
:
;
<
=
>
?
@
[
\
]
^
_
`
a
b
c
d
e
f
g
h
i
j
k
l
m
n
o
p
q
r
s
t
u
v
w
x
y
z
{
|
}
~
¡
¢
£
¥
¦
§
©
ª
«
®
°
±
²
³
´
µ
·
º
»
¼
½
¾
¿
×
ß
æ
ð
ø
þ
đ
ħ
ı
ł
ŋ
œ
ƒ
ǀ
ǃ
ǥ
ɑ
ɔ
ə
ɛ
ɣ
ɤ
ɨ
ɩ
ɪ
ɾ
ʃ
ʊ
ʌ
ʔ
ʰ
ʷ
ʻ
ʼ
ʾ
ʿ
ˈ
ː
α
β
γ
δ
ε
ζ
η
θ
ι
κ
λ
μ
ν
ξ
ο
π
ρ
ς
σ
τ
υ
φ
χ
ψ
ω
а
б
в
г
д
е
ж
з
и
к
л
м
н
о
п
р
с
т
у
ф
х
ц
ч
ш
щ
ъ
ы
ь
э
ю
я
і
ј
љ
њ
ћ
ա
բ
գ
դ
ե
զ
ը
թ
ի
լ
խ
ծ
կ
հ
ղ
մ
յ
ն
շ
ո
չ
պ
ջ
ս
վ
տ
ր
ց
ւ
ք
א
ב
ג
ד
ה
ו
ז
ח
ט
י
כ
ל
ם
מ
ן
נ
ס
ע
פ
צ
ק
ר
ש
ת
،
ء
ا
ب
ة
ت
ث
ج
ح
خ
د
ر
ز
س
ش
ص
ض
ط
ع
غ
ف
ق
ك
ل
م
ن
ه
و
ى
ي
٠
٢
پ
چ
ک
گ
ہ
ی
ނ
އ
މ
ः
अ
आ
ई
उ
ए
क
ख
ग
च
ज
झ
ट
ठ
ड
ण
त
थ
द
ध
न
प
ब
भ
म
य
र
ल
व
श
ष
स
ह
ा
ि
ी
ो
অ
আ
ই
ক
গ
জ
ট
ত
দ
ধ
ন
প
ব
ম
য
র
ল
শ
স
হ
া
ি
ী
ে
க
ச
ட
ண
த
ன
ப
ம
ய
ர
ற
ல
ள
வ
ா
ி
ு
ே
ை
ಂ
ಅ
ಆ
ಇ
ಉ
ಕ
ಗ
ಚ
ಡ
ತ
ದ
ಧ
ನ
ಪ
ಬ
ಭ
ಮ
ಯ
ರ
ಲ
ಳ
ವ
ಷ
ಸ
ಹ
ಾ
ು
ೂ
ೕ
ക
ത
ന
മ
യ
ര
വ
ാ
ി
െ
േ
ක
ග
ට
ත
න
ප
ම
ය
ර
ල
ව
ස
ා
ෙ
ก
ข
ค
ง
จ
ช
ญ
ด
ต
ท
น
บ
ป
พ
ม
ย
ร
ล
ว
ส
ห
อ
ะ
า
เ
แ
โ
་
ა
ე
ი
ლ
მ
ო
რ
ᄀ
ᄁ
ᄂ
ᄃ
ᄄ
ᄅ
ᄆ
ᄇ
ᄈ
ᄉ
ᄊ
ᄋ
ᄌ
ᄎ
ᄏ
ᄐ
ᄑ
ᄒ
ᅡ
ᅢ
ᅣ
ᅥ
ᅦ
ᅧ
ᅨ
ᅩ
ᅪ
ᅬ
ᅭ
ᅮ
ᅯ
ᅱ
ᅲ
ᅳ
ᅴ
ᅵ
ᆨ
ᆫ
ᆯ
ᆷ
ᆸ
ᆺ
ᆻ
ᆼ
‐
‑
‒
–
—
―
‘
’
‚
“
”
„
†
‡
•
…
′
″
‿
₂
€
₱
₹
ℓ
№
™
⅓
←
→
↔
⇄
∇
∈
−
∞
≈
≡
≤
≥
─
━
│
┃
┌
┐
└
┘
┬
┳
┴
■
●
★
☆
♠
♦
♭
⟨
⟩
、
。
《
》
「
」
『
』
あ
い
う
え
お
か
き
く
け
こ
さ
し
す
せ
そ
た
ち
っ
つ
て
と
な
に
ぬ
の
は
ひ
ふ
へ
ま
み
も
や
ゆ
よ
ら
り
る
れ
ろ
を
ん
ア
ィ
イ
ウ
エ
オ
カ
キ
ク
ケ
コ
サ
シ
ス
タ
チ
ッ
テ
ト
ナ
ニ
ノ
ハ
ヒ
フ
ヘ
ホ
マ
ミ
ム
メ
ャ
ュ
ョ
ラ
リ
ル
レ
ロ
ン
・
ー
一
七
三
上
下
不
世
东
中
主
之
九
也
乡
事
二
五
井
交
京
人
仁
代
会
伝
体
何
作
你
使
俊
保
信
健
元
先
光
全
八
公
关
典
出
分
刘
利
前
劉
力
加
務
化
北
区
十
华
協
南
博
印
原
友
口
古
台
史
号
司
合
吉
同
名
后
向
君
周
命
和
唐
商
四
园
国
國
園
土
地
圳
场
城
基
堂
士
声
外
多
夜
夢
大
天
太
夫
女
好
如
子
字
孙
孝
学
學
宇
守
安
宗
定
实
宮
家
宿
寺
小
少
尾
属
山
島
崇
川
州
工
市
帝
師
常
平
年
庄
店
府
康
廣
建
弓
弘
張
形
徐
御
德
心
志
思
情
愛
成
我
戦
戸
所
手
技
政
敏
教
文
斯
新
方
族
日
明
易
星
春
昭
是
時
景
智
曲
書
曹
會
月
有
朗
朝
木
本
朱
李
村
東
松
林
校
森
楊
業
歌
正
武
氏
民
水
永
江
沙
河
治
泉
法
波
泰
流
海
深
清
港
湾
源
漢
火
版
牛
物
犬
猩
猴
猿
玉
王
理
生
用
田
由
申
男
界
白
百
的
皇
省
真
石
研
社
神
福
秀
秋
科
究
空
立
章
第
級
羅
美
義
老
考
者
聖
聯
育
胡
興
航
良
花
芳
英
范
華
萍
葉
蒙
藤
行
術
街
西
見
解
記
諏
警
诗
谷
貞
超
趙
足
路
車
軍
选
通
道
那
郎
部
都
鄭
酒
里
重
野
金
镇
長
长
門
間
阿
附
陈
限
院
陳
陸
陽
雄
雅
集
雙
雪
青
韓
風
食
香
馬
马
验
高
黄
黒
龍
龙
（
）
，
－
：
～
##g
##o
##r
##a
##i
##s
##c
##h
##e
##t
##f
##x
##5
##y
##2
##z
##m
##n
##u
##b
##l
##d
##v
##q
##p
##j
##k
##6
##3
##8
##4
##æ
##9
##w
##ರ
##ೕ
##ಬ
##ಕ
##ಲ
##ು
##0
##1
##7
##♦
##ð
##α
##υ
##τ
##η
##ς
##−
##ø
##ר
##ر
##ا
##ー
##ı
##о
##д
##и
##н
##у
##ր
##ս
##ե
##ն
##յ
##ա
##կ
##ท
##บ
##า
##ล
##เ
##ม
##อ
##ง
##ก
##ว
##～
##ə
##ʿ
##β
##զ
##ո
##ւ
##ի
##ک
##ن
##ه
##ᅥ
##ᄋ
##ᅮ
##ᆯ
##ᄃ
##ᅢ
##ο
##´
##л
##ц
##е
##ł
##ದ
##ಯ
##ಾ
##ा
##ट
##क
##च
##ז
##י
##א
##ל
##р
##п
##а
##π
##λ
##ω
##ν
##ι
##đ
##ア
##マ
##с
##т
##я
##ர
##வ
##ண
##ி
##γ
##σ
##κ
##ف
##ت
##و
##گ
##μ
##ʻ
##ल
##в
##°
##ᅵ
##ᆻ
##ζ
##ε
##ρ
##ᅡ
##ᄇ
##ᅴ
##к
##ч
##ᆸ
##ᄒ
##ᅧ
##ᆫ
##ᄀ
##ᆨ
##œ
##×
##ע
##ה
##ل
##س
##ɔ
##ಚ
##ೂ
##ಭ
##ವ
##ಂ
##ᅩ
##ᄂ
##ᅦ
##の
##δ
##ج
##ß
##м
##ъ
##م
##ب
##タ
##ッ
##カ
##र
##ю
##щ
##ы
##х
##ᆼ
##ᅭ
##ᄌ
##ク
##½
##¥
##ᆷ
##ᅯ
##ᄐ
##ŋ
##ᄑ
##へ
##غ
##ь
##さ
##せ
##г
##ත
##ා
##з
##ع
##ق
##ي
##ة
##ে
##ক
##ش
##ᄉ
##ᅪ
##№
##φ
##ನ
##χ
##θ
##շ
##ය
##ල
##ක
##ග
##ෙ
##る
##ト
##ロ
##ᄅ
##ᅳ
##ж
##ք
##נ
##ɤ
##ф
##ح
##د
##ʾ
##б
##ʌ
##ס
##ם
##ಗ
##і
##ב
##ी
##न
##द
##ध
##व
##ि
##त
##य
##ज
##म
##ः
##വ
##ന
##െ
##ാ
##ര
##ط
##ш
##ह
##þ
##ʼ
##מ
##ש
##¢
##য
##া
##ন
##স
##র
##ष
##ɩ
##リ
##վ
##љ
##լ
##թ
##ィ
##シ
##ョ
##ナ
##ಡ
##ತ
##ル
##と
##ی
##ร
##พ
##ห
##ނ
##ј
##த
##ா
##ك
##ර
##ต
##จ
##น
##ช
##כ
##פ
##ল
##দ
##●
##ղ
##ח
##ו
##ק
##ћ
##ക
##ത
##ി
##േ
##ை
##ᄆ
##º
##ケ
##ミ
##ת
##ص
##ख
##ई
##つ
##か
##し
##き
##∞
##ᆺ
##レ
##ろ
##オ
##ম
##ব
##ء
##ग
##ラ
##フ
##テ
##サ
##イ
##ン
##ן
##න
##ד
##け
##す
##™
##แ
##☆
##ठ
##չ
##ぬ
##²
##ز
##க
##ம
##צ
##थ
##な
##い
##ᄎ
##⅓
##ত
##ಷ
##ව
##━
##┳
##ல
##э
##ʰ
##ɨ
##ハ
##ム
##ो
##դ
##て
##も
##গ
##ধ
##ξ
##ʔ
##ى
##ャ
##キ
##भ
##ᄊ
##ᅬ
##ん
##ಳ
##ब
##ට
##ᅲ
##た
##り
##に
##ら
##ค
##ข
##ヒ
##ʊ
##ˈ
##ɪ
##≡
##¼
##ன
##ᄏ
##բ
##ը
##│
##┌
##─
##┬
##┐
##њ
##മ
##ड
##ு
##ি
##գ
##स
##₂
##³
##श
##♭
##ญ
##ᅱ
##お
##±
##ɛ
##®
##ウ
##を
##€
##ג
##ப
##ே
##տ
##ɣ
##प
##ث
##ュ
##ス
##ゆ
##う
##ย
##জ
##մ
##ջ
##պ
##∇
##ニ
##チ
##հ
##ט
##ส
##യ
##٠
##ち
##ด
##れ
##コ
##ɑ
##ː
##¾
##ʷ
##ම
##は
##ʃ
##ण
##ட
##└
##┴
##┘
##≥
##ց
##よ
##こ
##ಪ
##ホ
##ǥ
##っ
##ள
##ট
##ප
##โ
##خ
##ய
##پ
##ᄄ
##ᅣ
##ಮ
##ᅨ
##ა
##რ
##ი
##く
##ე
##ლ
##ป
##ಹ
##ħ
##ま
##え
##ہ
##হ
##エ
##ヘ
##メ
##ী
##٢
##چ
##প
##শ
##→
##ಸ
##ψ
##խ
##★
##ひ
##ض
##ɾ
##ಧ
##ǀ
##ই
##∈
##ะ
##ծ
##ற
##そ
##£
##ए
##ᄈ
##ස
##ᄁ
##އ
##や
##ノ
##झ
##≈
##ச
##ª
##あ
##ო
##©
##ǃ
##■
##↔
##ふ
##މ
##მ
##←
##み
##उ
##¦
##आ
##µ
##अ
##≤
##₱
##ƒ
##ℓ
##┃
##he
##er
the
##in
##on
##an
##or
##ed
##es
##en
##at
##ar
in
##al
of
an
##is
##it
##as
##ic
##ing
and
##ion
##ou
to
##om
##re
##il
##el
##ent
##ol
##am
##ec
##st
##et
##ur
##ac
19
st
##ad
##le
##ro
th
##iv
was
on
##ers
for
##ir
##ation
re
20
##ig
##ot
as
##id
##ter
##ay
is
al
##ly
##em
##ch
##ist
##ut
fr
##im
##ow
##us
##th
##ith
ch
##and
he
with
by
##ul
##ag
at
con
##ts
be
##un
##op
##um
##ce
##os
com
un
##oun
wh
##oc
pro
##her
##ain
de
##ver
##ian
from
##est
##ct
##ri
##ap
pl
se
##av
##ia
that
##ess
##all
##ber
##ab
##od
ar
##ity
ne
##ies
ex
it
##ect
##ate
le
en
or
201
pr
##ill
##art
##ard
##if
his
##ud
##ak
su
sp
##ip
##igh
tr
200
##our
##ov
sh
##ich
##ated
##ary
##ort
##ish
##se
##fer
##mer
##ment
##ge
##ive
##ld
##ear
##og
##ial
##ie
18
##ere
are
##ong
##pp
##ell
##ks
cl
##ant
##ces
##ub
##ast
##ue
wor
br
##ust
comp
##ine
##ame
##ound
##so
were
af
gr
##gh
mar
##ions
##ore
play
##ical
new
##ost
also
rec
##end
##ord
which
##tern
sc
ad
##pt
ser
##ack
##ign
##uc
fir
##ther
res
ac
##qu
not
199
col
inc
man
##age
##ure
##per
##ican
her
##ass
refer
first
##ight
##der
whe
##man
this
cent
##ire
##ous
##ra
##ember
##ences
ab
had
##iz
car
##ry
she
comm
cont
part
##ount
pe
##ational
te
##ang
##ough
ind
##hed
##ory
year
##ond
##ans
##ations
##ice
##ok
has
fil
tw
##land
##ome
go
##orn
all
##mp
amer
##ave
el
##ric
int
##amp
##ide
after
##ib
##out
co
one
rel
references
us
par
##ence
rep
bo
##ition
##ach
##ater
ag
##ru
per
its
##ey
their
##act
pol
can
sch
film
198
ro
des
who
##ens
app
##ace
##wn
##ates
##ople
##ree
but
tim
jo
##ited
##own
dis
##ual
##ath
fe
##ail
american
##ult
ed
##aw
##ff
##ubl
##ik
##ivers
##rit
##00
##ball
two
##lud
act
off
fin
##ents
people
##ite
##ild
##ors
##ool
##les
they
mus
bec
##gr
we
197
ph
##ance
fo
reg
ass
##ould
##ward
other
dec
includ
##iss
bl
##ade
lin
sec
bas
##ug
##uring
ev
##ied
##oll
count
eng
pre
me
fl
up
have
##ile
202
##hn
gen
##hip
##io
serv
##for
##te
196
hist
sou
univers
##ings
bu
out
##we
school
may
nor
##old
over
been
##ason
min
##ics
##eld
##ury
##ely
war
mon
sy
am
loc
kn
##ose
foot
dist
pres
ma
##ft
publ
##ton
time
##ision
during
art
##az
work
##ished
##als
##urn
national
win
ear
##gan
med
##able
exp
##vel
prod
17
team
char
when
dr
acc
cons
##ral
att
under
university
there
##ames
united
##olog
world
##ict
gre
194
##ah
elect
##rib
##way
bro
##one
##ale
##ock
football
bet
gu
195
into
##ists
stud
est
##cc
##int
##eas
no
##ick
##ction
##oup
season
##ternal
##anc
state
##ake
po
##ev
sub
record
alb
players
##au
air
south
sing
spec
born
##rap
will
##ily
##ious
inter
##ons
city
found
##ix
##eral
ret
pop
##oth
##ank
##ph
external
him
##let
bir
##ork
links
so
more
##ife
states
##oci
##ince
century
nov
fam
##ier
high
thr
##ood
10
##att
years
prov
form
most
dep
##ouse
##form
second
trans
193
again
would
##vern
##ative
liv
##air
##hes
def
##ities
##ollow
##up
dire
##ina
where
imp
##emb
16
later
follow
inst
##ep
##enn
##ann
15
three
qu
north
end
##lish
govern
wom
cap
##ween
##res
only
##ating
some
how
between
rev
##son
group
ap
album
award
about
##ular
rem
met
music
##ement
writ
song
jun
##ally
sm
mov
bar
cr
##ograp
ge
ter
##ague
releas
op
la
##ery
direct
arm
192
##iam
ger
ann
through
sa
12
compan
##lo
list
aust
john
inv
##enc
##aus
history
day
cre
##ys
##0s
sur
##ific
then
back
num
champ
series
them
made
##rict
see
##ths
##sp
bel
county
while
set
lar
four
##hy
polit
known
offic
house
care
191
intern
jan
league
pers
##ional
brit
##ounc
##ield
men
##fore
such
##uss
##ss
mod
##ress
##ley
oper
##und
used
##ident
supp
call
lead
death
commun
sw
##ten
well
##are
##velop
##ures
div
do
##iew
women
##ope
estab
than
prof
##ket
##bs
##ese
german
##oss
mil
became
##itt
##ather
add
14
main
##til
club
##ont
develop
tel
ju
##ism
11
including
mat
##ern
aut
##igin
build
##ower
const
rece
desc
district
show
##ai
har
being
life
public
##ase
str
##ise
##erv
general
##ourn
town
em
cor
id
west
before
family
##its
##els
films
##lin
##urch
international
many
##ection
##other
##ert
origin
early
dem
law
against
aug
##yp
##ron
sign
##orts
champions
##ural
##fl
##ments
##red
class
##iver
both
13
these
colle
game
##ike
##co
##ians
cal
career
cro
##ke
march
sept
open
sl
##ister
august
cour
##hen
im
design
##ole
long
##min
oct
##uary
york
games
##amed
austral
##eng
king
##ived
##ae
produc
own
##ution
progr
former
##ning
september
coll
##led
##ner
var
living
sim
british
leg
government
##ained
until
##ever
following
contr
##ected
cur
red
land
organ
##ty
21
associ
run
miss
##stem
eur
##ober
since
##ology
##ins
june
sever
number
october
appear
##ene
av
##ind
january
ep
company
vill
##ril
won
lo
area
##ica
child
star
july
maj
based
name
head
old
played
system
chr
##by
births
val
memb
arch
canad
bus
ext
however
##ized
released
##ull
english
person
##ash
educ
##inc
mill
produ
##ants
port
##ott
##bo
april
##iet
del
members
november
college
feat
championship
##bert
popul
##xt
##ute
##elf
##ently
##ains
mid
stre
##ior
party
##ange
histor
conc
best
december
##ital
je
tit
camp
000
##ruct
profess
dif
center
major
##eter
soc
##ved
ii
place
mo
##yn
several
sci
east
##osed
##ium
190
##ench
##icip
##ages
church
called
pat
telev
return
##yle
member
2010
left
adv
sk
align
mag
phil
##ets
##ful
##ime
##ives
sum
start
program
##ography
compet
ec
home
##ues
thir
near
2011
ra
ent
television
##ren
contin
feb
europe
##ject
pass
prom
president
repres
##apan
final
station
##ek
##br
##por
band
##ruary
february
##lished
manag
189
##ause
support
rad
rail
##ually
same
##ble
rom
##ling
resp
##aking
2012
##aint
order
##ator
geor
##ark
##che
japan
local
##ired
pri
##aces
vol
eff
bre
##ilt
just
##ps
##ham
##ider
##ll
hel
2008
you
che
##ane
now
tre
line
lang
each
##port
ob
ever
##row
##ised
##ined
tri
wal
french
##ony
2009
use
##ove
park
ste
##ama
ang
official
2013
##gin
25
represent
named
any
along
tec
christ
##ices
sen
##ects
##hor
russ
2007
emp
prev
2016
river
##ible
mal
post
prot
pa
hum
2014
##ption
##get
##ats
30
##ility
##ve
##ata
held
##ung
road
mer
occ
2015
2006
gl
island
##ided
top
my
##sc
complet
##ival
##ended
2018
mu
##aining
##han
ir
##ured
down
began
established
disc
pos
batt
division
service
##adem
ital
##ison
##aced
##ued
if
sol
##ode
sal
book
##ett
did
describ
milit
small
2017
bi
located
ant
##augh
##rop
##ger
due
arr
like
black
deb
##yl
william
##ms
2019
far
2020
present
##itions
mount
##atic
##ret
short
##ondon
188
##eal
six
vers
##ford
langu
great
london
population
rest
died
right
##ights
doc
son
style
##iness
event
fur
##pl
player
third
techn
cup
species
resear
counc
water
##acks
power
##onom
##ays
##ically
san
single
##lex
army
age
took
served
##ze
academ
##sh
##uck
vis
differ
##ried
crit
last
vict
##me
24
around
##aster
stand
##que
##hing
depart
succ
association
##alth
vi
typ
##ought
cast
stat
field
five
2005
hon
roy
published
built
net
##ards
##aving
cond
lab
oly
##ax
received
super
youn
##ne
instit
success
olymp
##ille
##ster
cult
##ety
22
##af
nat
hand
##omin
fre
##ission
##idge
mun
##ially
dav
##cl
##ines
children
building
village
186
indian
vide
##ob
##gy
mor
2021
##ars
white
ele
##ds
because
##ipp
##raft
business
hal
press
another
##ara
social
country
central
##ana
##bur
court
engine
##ored
round
within
sports
##app
accord
curr
fac
##ee
could
author
military
soci
nort
tour
##gest
gold
spe
##ides
##ka
##ows
education
appro
2004
li
addition
##umn
bur
##ief
du
##ency
##ified
council
##aff
##rod
23
##ring
187
report
##estern
non
tem
grand
said
##ately
enter
squ
works
conf
hol
##ler
journ
##ani
tur
union
##side
epis
conv
male
special
development
##cept
republ
2000
2022
##ges
##akes
don
research
iss
election
##ization
command
equ
rock
##col
uk
##aim
##cess
det
deaths
ber
##par
pal
according
large
described
common
kill
director
##acter
##ones
giv
##ention
activ
language
##oks
##na
##iod
side
times
led
street
further
father
##med
inf
track
fem
political
requ
mich
2002
opp
ke
among
##ma
sel
announc
video
included
##ument
que
production
##amb
exper
conn
##tt
include
##oint
vir
##ged
##ches
level
england
way
community
roman
royal
story
railway
##ient
bill
trad
sil
calif
lat
aff
consider
base
prim
sev
##istr
australia
period
civ
##osp
tot
capt
muse
original
californ
27
medal
28
26
million
result
perform
read
what
still
politic
broad
real
alth
2003
di
##omet
lim
cat
summer
##ize
##oy
although
turn
even
cle
california
lit
##ki
vot
##ha
2001
##day
fact
mc
songs
western
##ground
fed
region
title
awards
those
eas
nav
jud
incre
100
econom
##ky
mass
every
sold
rich
##ament
repl
##ody
department
museum
init
different
ve
##ecut
ref
good
previous
20th
admin
france
lou
##ico
society
records
##uct
grad
pur
##umb
australian
##ries
sett
role
point
week
prop
##ness
produced
##ribut
##line
late
ship
qual
office
dev
inform
thom
moved
stor
mart
very
brother
make
##loy
##ively
character
radio
hall
mot
india
george
##hel
civil
##ef
##omb
young
debut
dou
cam
##ocr
##ino
site
help
review
european
indust
establish
cross
fri
announced
cy
chang
mur
james
perfor
mult
##ruction
185
##work
written
human
professional
fun
##ying
paul
##li
cas
den
29
km
##ney
mark
##ops
canadian
promot
##epend
##ming
independ
##acy
bal
##hern
struct
flor
total
mem
##dom
canada
places
often
project
commission
##iment
cover
##ville
green
sour
##ted
health
er
##ena
sit
##wards
1999
appoint
franc
##anish
municip
hy
der
friend
poss
##rican
##field
##ots
live
##ances
##ners
expl
america
free
municipal
journal
##uel
##irc
ten
beh
force
##ched
much
albums
administr
arg
commit
board
next
surv
invol
footballers
various
##ints
import
came
rout
1998
hig
performan
##ature
light
prem
having
##ania
##ults
host
coach
david
created
##ink
given
invest
tal
sent
gir
##ced
married
ver
hill
version
northern
started
fest
##ago
alumn
##hib
introd
gener
##itar
1995
wr
match
##go
##uk
##ius
##ya
##ators
phot
process
pet
lib
allow
books
##ilar
##ship
russian
priv
take
##ared
using
events
mad
##ris
1996
los
minister
##ael
went
defe
##nd
alumni
full
mary
democr
##ady
fire
##gar
##ograph
##ech
##itor
1997
pan
jew
31
mex
##reek
il
chief
ath
services
##rote
webs
bank
##uced
##thern
personal
vo
germany
infl
wood
##ves
joined
circ
phys
##ological
science
voc
##esh
comb
teams
ins
popular
love
ham
modern
claim
et
secret
##raw
media
kingdom
hen
paint
lost
southern
big
race
##ida
archit
##imin
dam
##ivid
tex
fund
italian
trav
sem
##ross
test
background
constit
sn
need
wrote
worked
##rew
##ased
half
##pe
##ca
##ests
japanese
without
robert
##ald
##xim
police
kar
opened
sam
sat
mother
become
ur
days
##olic
##ple
similar
##bor
elected
princ
individ
tv
market
184
position
bg
##ached
gar
control
hous
returned
##ogn
##ours
buildings
hor
mel
low
50
##dle
daugh
##color
jose
view
pract
chair
particip
ball
##cer
committe
battle
fall
examp
tro
website
rac
students
tor
dut
parl
few
##isc
arts
##iction
athlet
release
tom
bgcolor
sound
washing
##den
anim
tak
pap
1992
1994
basket
##olution
recorded
lu
assist
individual
cath
hot
##mar
##ense
proper
mac
founded
cop
compos
##hers
thomas
enc
##ape
schools
african
wil
##ender
fell
province
##ele
cost
litt
artist
##cast
##burg
space
##be
front
##ga
china
information
washington
hold
night
partic
historic
##odes
dest
girl
tourn
##oph
ru
relations
##iament
directed
attack
engineer
viol
god
chin
##vers
##wood
case
artic
2023
##aj
magaz
##berg
parliament
notes
##sequ
toget
liter
##str
making
together
##itz
bay
##igr
##ij
##mon
gall
signed
scott
##arch
appointed
##aign
theat
institute
plan
ident
##lement
##iers
areas
gun
points
novel
sun
academy
wife
1993
basketball
wat
fa
aver
episode
##ective
louis
##anch
183
stage
little
ps
relig
fort
attem
ben
never
alex
centre
though
1991
lake
##ba
hosp
ground
env
angel
committee
playing
groups
confer
1990
execut
##ending
gradu
##eth
cens
text
meet
rob
##ump
campaign
architect
results
aud
eastern
row
tradition
fif
##lic
mix
key
wall
rank
considered
paris
news
continued
completed
coast
birth
caus
grow
eight
cit
##isl
mont
charles
##yr
working
festival
mater
companies
rights
##ano
championships
guitar
##used
influ
40
mic
##ari
forces
1988
treat
victor
ho
rul
heav
turk
ren
laun
originally
transport
##ban
construction
##gress
##oming
less
##cover
##urs
cand
##reg
middle
artists
tax
penn
brown
##craft
##rug
##erson
##edy
##nes
pen
##hem
##ned
##unt
##eg
##ker
sus
assemb
1989
##ification
fail
deg
##idence
##ona
data
##hi
##ements
##uf
##aves
model
fer
wind
esp
ul
olympics
republic
##iron
bul
once
hom
carol
others
squad
term
performance
fight
somet
pot
##ested
##aker
color
begin
michael
seven
peter
##hod
put
female
formed
21st
##enth
developed
##ta
spanish
obs
##ishing
libr
sea
desp
appeared
stri
##ked
chinese
body
daughter
cert
nar
unc
christian
should
ha
zeal
##ota
##ids
important
virgin
ach
reb
training
commer
pit
##rica
staff
##ili
tournament
hard
tar
recogn
studies
type
liber
goal
##ead
fore
catholic
contract
kh
##ois
particular
kore
##nel
ill
##rael
zealand
##of
strong
sex
plant
##itive
texas
interv
reported
##omp
census
access
##iding
##rain
van
ol
environ
##atri
employ
regular
colon
offer
aircraft
ly
away
israel
##ising
##ience
##aged
##ique
hit
private
current
##wor
upon
foc
reserv
singles
network
exist
express
stations
1984
##itted
dig
frank
does
##self
bud
saint
##ensive
belie
study
register
##bc
##tain
##aries
smith
1986
##ably
##omm
must
anc
federal
route
himself
scre
1987
avail
conference
writers
##ector
##ula
africa
ire
##ams
##ateg
##ander
##atives
##iving
##ria
blue
conserv
chap
##wer
past
actress
polic
across
successful
ven
fut
richard
example
anal
##off
henry
##uit
##imes
##idae
hospital
##hold
##ened
bow
sand
legisl
1st
##asc
ireland
politician
document
capital
mr
##oor
swed
mean
acqu
studio
box
nomin
corn
average
##ither
mos
professor
separ
##jects
action
throughout
despite
agre
magazine
impro
##olf
##ex
baseball
##ita
independent
sov
##ceed
get
scient
fourth
competition
musical
step
material
let
##ume
chann
braz
discover
governor
eth
section
bord
##har
performed
environment
culture
quar
gard
card
##uation
medical
cho
##hood
assembly
##less
ca
1985
cell
technology
##ura
features
inj
##ini
##ength
182
##ado
range
1980
congress
##ala
francis
movement
natural
edition
fig
exc
singer
##tr
##iff
##iec
soviet
##ston
chic
candid
subsequ
##utes
plat
listed
syn
sho
killed
available
say
management
hu
senior
##ada
sant
months
35
fle
bish
##ii
conduct
##anted
earl
gave
lear
##ergy
##ential
transl
wid
##iting
sir
method
know
master
woman
##idents
expatri
olympic
loss
designed
exhib
neg
##tor
related
includes
##uter
##lands
eventually
ox
find
sug
##elling
leaders
minist
dom
##ract
shows
##za
largest
taken
##ella
brazil
##king
##iple
##ych
leading
foreign
bridge
insp
awarded
##atory
##ush
##ockey
##enced
cric
##aps
draw
##rd
mexico
##hic
bad
##gian
ban
change
establishments
trib
broadcast
anti
featured
##band
minor
pac
collection
introduced
neigh
followed
achie
19th
theatre
finished
tenn
critic
##airs
drama
library
bor
plann
primary
bat
##ror
##oon
##ections
sar
1983
lower
writer
organization
rug
pay
actor
poet
##ificant
##ination
attempt
##ways
winning
181
size
shar
currently
1982
prior
cut
##ude
##eder
cricket
territ
##ilities
##oms
##iation
transfer
instead
valley
##pre
significant
via
respons
proble
regional
glo
##imate
virginia
kr
lord
pun
vocals
parish
##men
esc
iv
##ware
democratic
##my
##ola
ran
historical
##play
fc
1972
italy
notable
##aur
cov
rap
1979
##gen
chall
scored
occup
remained
##iano
florida
saw
dyn
empire
commerc
leader
##people
fav
greek
brand
wild
##de
clos
##ees
mountain
organiz
chicago
alm
emer
oh
wing
##ems
1978
producer
##aches
imm
##urity
##aut
1981
45
consist
food
##pr
prison
scot
##bb
seen
##hire
1975
interest
elections
32
##ilies
month
countries
involved
##igan
amb
stated
schol
##abor
##istan
officer
1976
sources
deal
hus
investig
arab
expatriate
##erous
soft
degree
manager
1970
adm
atl
regiment
mission
financ
hockey
##istics
1974
ros
industry
##olk
##over
writing
carolina
##well
today
##bal
able
premier
gal
coup
systems
gro
added
saf
units
seasons
operations
joseph
pil
##ylv
##ites
##apt
corpor
##stand
irish
perc
contribut
future
previously
##icated
placed
##ox
screen
martin
close
ord
##iro
1977
##ufact
pred
thus
cer
chem
surr
manufact
unit
families
lie
youth
stad
##rian
replaced
sport
navy
effect
least
speed
native
##fic
charact
da
quarter
characters
earth
##val
1973
deter
reading
selected
municipality
rugby
##era
##ray
##to
##roy
##ylvania
drum
provided
domin
##ades
##eration
fly
##sel
##ribution
##ios
inn
honor
hung
mach
matt
stev
##la
additional
angeles
##ny
##igned
##ting
entire
die
1964
memor
1945
##head
georg
1971
meas
boy
1968
##ette
##ription
missing
##ko
columb
##writ
approxim
scor
above
chart
os
ice
commercial
trade
##oke
##ients
cab
cred
security
##lam
##ving
secretary
executive
##opp
either
penns
stone
philipp
hur
##yan
wrest
airport
cultural
##oma
coun
product
psych
##ye
personnel
500
soon
come
1969
wales
economic
bri
silver
haw
##agon
jewish
dar
##ability
##ental
republican
observ
plays
##aching
##orpor
quest
##arian
##west
1960
pennsylvania
##ck
energy
peak
look
newsp
##oles
train
politicians
cele
##ends
russia
self
foundation
reached
break
bass
owned
beginning
2nd
##cher
log
mir
60
newspap
standard
shot
travel
fair
##abit
goals
##lor
channel
queen
##hu
az
brig
household
pict
les
rh
legal
jack
dutch
bron
heart
date
##antic
1967
180
##medi
##hest
defeated
cd
##ript
polish
usually
outside
##tic
##porary
36
33
parts
multiple
structure
behind
jer
limited
our
occur
surf
##iana
mec
money
##pper
prince
prize
winter
attended
represented
forest
spring
bib
rather
captain
religious
##pts
electric
complex
active
spain
editor
und
decided
##iger
elev
purch
##ask
ott
##anian
comedy
administration
1965
##ims
##ales
interview
##istic
jim
##ste
decl
tou
##ja
disp
relationship
##kn
names
##back
ast
too
biography
genus
operation
higher
princip
almost
guard
islands
revolution
##uction
footballer
##wa
justice
academic
vehic
##arily
##board
ray
carl
nec
here
rural
ko
closed
decision
oppos
jul
reason
labor
dance
initially
spir
wa
ess
##ym
location
cust
tun
dun
got
accept
sym
##ols
scottish
engineering
whose
dark
##iga
regard
traditional
##tim
##9e
overall
anth
thre
##mal
annual
online
##ters
ukrain
lay
##ansas
nine
running
fel
burn
stadium
chairman
##uth
towards
##ingu
##ffer
##span
##ato
##here
179
ak
##wan
lived
##egr
es
property
approximately
face
00
##ati
taking
##tar
##azz
lik
happ
luc
provide
pak
1962
communic
##ronic
##ero
1966
##ining
function
##ule
seat
asian
##bury
iii
##bridge
34
##asing
1944
murder
sportspeople
bomb
##rial
##uce
##ulty
albert
65
bishop
sched
##ias
dead
length
1963
remov
##heast
champion
pu
edward
gallery
corps
opening
page
harv
##road
course
celebr
##ension
teac
web
associated
farm
brought
portug
##ien
township
oil
contem
allowed
reform
houses
bab
policy
cities
ram
mcc
wide
altern
lee
##ession
prime
focus
intell
##elled
##mann
espec
##ques
##uments
##da
ended
rang
##ises
concern
##ea
possible
recording
bon
bell
score
fiction
border
##cel
##leg
victory
practice
collabor
frequ
susp
poland
pacific
sometimes
junior
destroy
##enue
kent
ens
issues
runs
suggest
agric
block
student
respect
abs
dip
##zz
48
##use
##riage
complete
##ington
winner
especially
clear
purp
highest
##awa
heavy
ancient
winners
sav
citiz
beg
##hol
##ador
construct
agricult
dro
jac
##anda
whom
lic
cases
article
generally
doctor
feature
1956
sister
##itors
##ulation
peace
mayor
##owers
1961
digital
nations
##ories
changed
account
stars
orche
hop
##gn
##iel
matches
philos
argent
emb
applic
##asion
##ream
activities
spent
below
##mond
termin
launched
ships
tracks
##ersey
scul
noted
##isions
better
georgia
nature
instr
actors
financial
##onse
ohio
38
ash
1948
ut
1942
stock
##itch
ok
##inn
##etts
villages
ded
illin
islam
##yc
piec
jones
bost
hong
medalists
assistant
1939
move
1958
ce
lines
source
value
deput
bound
##ros
theory
issue
od
clubs
literature
organizations
##tained
michigan
keep
##ibility
temple
37
kong
##utions
##rison
room
##adel
illinois
certain
motor
categ
fifth
44
ba
draft
means
##anced
voice
specific
##inet
1957
mob
adop
1959
stan
prob
mand
britain
itself
medic
piano
platform
##ift
##achus
meeting
pain
appearance
bob
movie
square
sculpt
architecture
retired
boston
##gl
print
opt
shoot
bang
communities
upper
entertain
contains
cann
earlier
scotland
##eds
computer
##ira
##ken
going
husband
##aph
officers
tam
surround
survey
rain
##aught
era
##war
##ify
numerous
gas
massachus
na
massachusetts
asia
highway
required
flight
structures
progress
majority
entered
arrang
subsequently
##usion
mechan
##iety
columbia
changes
80
dani
roll
anton
##fect
##aly
infant
##isk
caused
sequ
1943
castle
operated
emper
##ties
lack
##ready
42
##omes
commander
urban
subst
trust
##inct
becoming
serving
politics
cz
jersey
abb
##rey
##ails
75
resour
johnson
1946
1941
confl
##outh
##ali
starting
charl
##hl
expand
1947
critical
mas
##ux
already
##emic
episodes
indic
response
##rick
1952
paper
ful
workers
reveal
your
##va
golden
code
ari
cin
nick
evidence
##ela
blood
vice
##mit
1950
solo
##ging
##burgh
status
1955
1940
rod
##oo
representatives
jean
##ila
connect
give
studied
increased
rat
bern
oce
word
##ram
tell
3rd
uses
thought
diffic
tan
##ented
hours
##enge
ta
fellow
las
global
finals
suffer
##stra
nation
70
immedi
##d6
##bi
1953
stories
jr
towns
bene
hotel
famous
dor
branch
programs
41
##shire
##house
##rect
##uten
iron
terms
90
path
##uch
defense
micro
racing
twent
ministry
##down
mol
mess
senate
von
bh
178
##itation
deep
attract
##gypt
discuss
bibli
autom
beat
alexander
create
competed
berlin
passeng
##ustr
supre
battal
##isation
reception
constitu
supported
volume
vote
##lied
spl
serb
minutes
emperor
older
##oul
##eks
egypt
##action
1949
dog
gh
oxford
47
jacks
##bon
##lad
##atch
cart
##20
finally
forced
remains
##orporated
rog
williams
musicians
##iy
memorial
##aka
##vert
girls
dan
##ua
adj
demon
double
viet
crime
particularly
friends
##encies
swim
dur
##iance
stra
presented
ib
##change
proposed
promoted
diseas
plot
poor
##bers
marriage
##standing
takes
1954
appearances
earned
56
sab
stay
##tered
1980s
concert
crew
subject
##onia
faculty
temper
##stein
industrial
belong
victoria
rose
sac
##iders
1951
install
diss
1936
passed
mit
##mark
coal
jackson
mostly
magn
syd
##phia
surface
##akh
##ysis
ped
lady
bac
parents
musl
reserve
##illa
prepar
latin
swedish
administrative
squadron
bbc
39
1918
failed
creek
nic
kil
contemporary
##dy
##kins
distribution
judge
maria
bol
fish
mention
##une
pra
##itan
64
raised
entertainment
49
sout
latter
marine
##phy
accomp
neighbor
fal
income
metal
##iant
francisco
integr
promin
opera
ple
dail
pick
clar
coop
177
weeks
confir
mixed
brothers
##ips
software
##nam
##any
armen
surn
element
hind
claimed
contest
##aria
43
quick
abd
rot
articles
sail
recent
descent
label
demand
##rid
1970s
beach
##orter
flag
note
clin
recip
soccer
eliz
##aud
##ova
headqu
parties
ts
##adelphia
joint
##kin
freed
##iang
1938
pack
##icks
korean
cub
##oster
##eman
baron
##arters
comment
51
##bour
pp
lieuten
meaning
documentary
##och
mathem
philosop
ky
supreme
##abeth
shown
##aya
##itage
52
59
asp
lives
troops
##bec
philadelphia
##ils
##iles
extended
authority
physical
sydney
sciences
done
estim
seg
##izing
##chester
sher
fm
referred
leon
variety
55
preserv
increase
novels
description
##ledge
##hr
uns
composed
doub
spirit
drug
pier
experience
estate
##read
populated
larger
joe
corporation
##ote
1990s
##yer
kenn
##oral
jeff
eld
longer
soldiers
store
partners
##hens
affairs
acquired
##oid
##etic
##ouri
recon
##ls
products
jon
##onto
leaving
rule
heritage
sud
duke
always
korea
believed
remain
1920
individuals
bronze
andrew
featuring
semi
deputy
imper
territory
##ortun
suc
nam
helped
##fc
##pped
cav
ka
plants
lem
dipl
laws
formerly
cem
hear
##ires
newspaper
ken
map
alongside
infantry
table
spr
themsel
carried
themselves
tower
mut
##itting
##win
##don
behav
##gu
touch
czech
covered
classical
yell
threat
##inary
som
rate
##ci
##isher
founder
greater
traff
##una
1937
trial
jazz
##aded
garden
advent
mountains
orchestra
liberal
plans
##icted
profile
##amin
1933
##jo
queens
might
percent
##ocks
lieutenant
issued
jur
wars
##sen
miles
brief
cause
tay
impact
naz
bibliography
ori
continu
mis
bring
remaining
initi
barb
cinem
1960s
climate
appears
##oe
##10
candidate
##ifying
1935
except
##ropol
##ologist
1914
##ases
##ima
##rovers
treatment
compil
residents
mainly
conditions
sund
beaut
daily
##ji
display
cry
rivers
separate
max
crown
##inal
##imb
offered
forward
avenue
##mad
nether
controvers
1929
lt
cru
ring
lif
##teen
inside
projects
letter
naval
secondary
vent
bod
##vement
46
statistics
ga
think
##roll
##cia
1928
mexican
##aging
##agn
forms
iran
positive
elements
toronto
suff
turkish
citizens
cancer
steel
technical
##rich
##sa
scholars
1930
scientific
daniel
##osh
prec
htt
horse
ocean
##iat
consists
##thur
mike
graduated
environmental
makes
bc
##zy
elimin
1919
88
hyd
sens
##orm
nearby
##ucle
##mas
effects
kal
##lers
kind
unl
publishing
ethn
problems
overs
increasing
reviews
transferred
##ucky
kim
unkn
brigade
cham
feel
charts
ah
address
planned
yellow
##oman
symp
hero
##ously
##ricts
influence
discovered
prote
kir
##itude
determin
alf
minnes
##illy
##usc
demonstr
##hew
##uries
settlement
##wh
##rupt
boys
responsible
##ulated
extre
battalion
provides
pul
restaur
refl
therefore
rand
carry
succeed
##ube
difficult
serve
concept
kur
wanted
told
minnesota
maxim
firm
geography
object
##tery
titles
##ourne
turned
cambridge
levels
intellig
purs
direction
managed
acting
##ancy
1932
mom
##ora
illustr
##50
morn
##atively
enough
distance
apart
##wide
words
##anger
stop
##wick
nearly
##akers
cyc
conver
quality
netherlands
inh
bey
protest
tu
##astic
##ez
unknown
bott
##ening
songwrit
##uated
scene
publications
hay
agency
##oud
raj
rules
lov
##uts
sites
si
formation
educational
counter
lew
protection
ward
owners
initial
fast
vac
leadership
aer
participated
diam
moth
asked
languages
##worth
##amm
brook
##edd
300
##oration
hunt
districts
##gs
##rad
mah
om
tennis
##acts
saying
leave
capac
slov
nucle
simp
custom
elizabeth
hund
growth
renamed
chris
tree
resident
require
##ault
analysis
archae
turkey
housing
kel
agreement
titled
##anth
cerem
1934
necess
designated
##greg
whether
folk
##ighter
pad
rein
principal
ira
resist
arms
##iter
removed
crimin
marsh
critics
figure
##inger
grade
campus
constructed
lyric
marc
##vin
yet
drive
trail
##thing
target
races
labour
true
moving
twenty
facilities
primarily
scen
consum
jews
khan
legislative
rome
content
##kh
independence
format
1917
usa
likely
dedicated
controll
lot
1921
immigr
##aska
railroad
revealed
search
##heim
constant
##resp
officially
experi
##oned
directly
votes
1922
ron
##ione
1931
##aped
##more
grant
weap
fleet
54
floor
hundred
swe
weight
metropol
representative
##ensis
coming
##book
yards
entr
teacher
18th
ww
favor
bed
##bourne
resources
mm
53
yard
whole
rab
dynast
lett
perman
equip
##itzer
##osl
##jan
hosted
rub
fill
cars
fine
fu
federation
maryland
composer
challeng
4th
alle
1924
types
wilson
##ih
##ece
ontar
kl
continue
ontario
wit
exchange
arrived
##etery
question
santa
cemetery
##yt
fox
##osa
##ava
1900
1927
nominated
kansas
listing
wrestling
implement
households
##stone
sales
pakistan
habit
##ogue
1912
catal
##owa
sexual
sweden
din
combat
lies
##aga
domest
gang
mort
ordered
dim
charge
calc
internet
##vi
shortly
grew
image
57
oak
1923
advanced
medicine
roles
job
enem
coaches
sons
##asa
conducted
##ici
##ression
shel
hour
norwe
##onsin
eg
wisc
##arm
cra
share
potential
hart
numbers
##ributed
instrument
##pa
gi
jes
indones
prominent
##town
bulgar
ic
experiment
fame
headquarters
wisconsin
##unte
idea
##attle
attend
##sey
rene
compar
dub
ku
ow
robin
pros
snow
##ecting
philippines
missouri
ali
morning
cook
immediately
chur
withd
obl
tai
capacity
gil
symb
sax
norwegian
amp
lith
partner
safety
poll
machine
organized
recover
stephen
operating
##ensity
58
approach
exhibition
##real
basis
equipment
males
##water
intended
thous
windows
steve
##bre
1925
freedom
##ception
efforts
cant
models
taylor
join
1926
leaves
176
bear
challenge
thousand
##oses
advis
freder
##works
economy
defeat
athletics
vic
painting
spread
produce
literary
crow
compared
declared
glass
colorado
lor
opportun
##zo
comes
orth
##ns
ey
##uan
affili
sixth
volunte
1910
arthur
brad
owner
presidential
follows
niger
amount
guest
activity
lyn
fighting
trump
##ulf
starring
##izes
drums
hun
##bl
han
##ills
narr
divided
indiana
##iring
##lines
divers
sri
ton
1916
arc
weekly
bag
combined
##no
institutions
imperial
brid
communist
commonly
atlantic
gab
##rus
##weight
##jected
perm
pand
danc
reach
##rol
programming
merc
benef
probably
holy
bah
things
storm
##eller
churches
theme
andre
highly
##inity
advoc
##onym
##apore
##ped
conservative
knowledge
diplom
entry
##light
org
dynasty
inspired
cyp
fix
175
ariz
greg
retire
pressure
gri
##gb
frame
davis
sin
prevent
estimated
giving
watch
respectively
problem
##olis
conflict
defend
ranked
aband
split
tall
scoring
wins
distingu
vocal
sr
ability
deliver
brazilian
educated
strike
purpose
theater
norway
##caa
singapore
tab
##ounds
smaller
tenness
females
creation
religion
pair
tag
agent
transportation
cycl
destroyed
assigned
younger
planning
officials
generation
arizona
subs
attention
typically
##respond
tennessee
##ami
400
spons
correspond
purchased
surname
captured
##oir
##rical
malays
confirmed
##ito
ultim
applied
##mont
singers
samp
reference
##uled
dynam
##umed
##gers
##erb
becomes
##kee
category
alt
promotion
constitution
ny
##ordin
opposition
recently
##orney
regul
spect
replac
performances
74
sle
chamber
##rom
hills
bes
horn
risk
seats
##inals
##sk
##rie
##ika
bos
want
mathemat
##je
rowspan
disease
##rel
1915
israeli
kaz
domestic
strug
##ores
##ivity
intelligence
nfl
recomm
quebec
ches
bann
serves
classic
ncaa
zone
journalist
ax
interp
##ographic
chemical
##illery
physic
66
nob
equal
athletes
mind
##igen
strugg
##iven
fear
dial
ot
scale
quickly
comics
directors
minute
util
studios
visual
##ambig
learning
##30
##entr
buried
aim
needed
pilot
metropolitan
##regon
gay
##rier
nep
attorney
##erc
##ounts
##anta
##ighth
flood
provinc
##urer
ell
poetry
##ho
simon
honours
launch
adopted
ll
greece
##bed
flying
##can
1950s
sort
##isa
publication
##aki
damage
lewis
vs
positions
growing
actresses
##ipped
hou
swiss
bure
oregon
virt
beyond
##ras
column
171
materials
##sky
commonwe
fash
reports
croat
palace
fant
chen
playoff
##gely
whit
newly
##ran
##uge
budd
##kes
conclud
neighborhood
teaching
pin
expans
mosc
sche
1913
62
##otyp
disambig
##onents
widely
granted
golf
kat
taught
commonwealth
condition
##aven
iraq
disambiguation
candidates
danish
##ailed
brun
merch
agreed
proceed
gained
##enna
vehicles
##zh
versions
resc
##ibly
anne
occurred
accepted
77
finish
kid
##iced
austria
iowa
felt
largely
nag
wear
##oti
beng
expanded
traffic
68
72
##rence
portray
1911
dal
fab
strateg
shr
##asts
lect
alliance
melbourne
adapt
resulted
twice
provincial
transform
sky
managers
rus
##uv
ross
authorities
mentioned
sad
##eline
price
supporting
##kyo
##ao
returning
##hann
painter
encour
northwest
##uted
fashion
##estab
hers
pool
##ori
southeast
gord
jam
eag
trip
colonial
kentucky
alone
couple
cold
musician
facility
##asters
armed
bit
wheel
vess
goes
tas
fat
##unct
minim
letters
##lyn
presence
##ropical
5th
kings
ye
americans
moon
dram
regions
ker
propos
ark
##pton
billion
something
providing
1908
cow
bou
howard
loan
nap
migr
95
##rig
##aver
hans
##het
##onent
##gi
##olved
dra
acts
reduced
miller
bull
hands
aqu
##bit
advert
fields
adam
electronic
convers
choice
##iday
allen
##onic
switzer
bowl
emerg
moscow
##oli
supply
rear
performing
begins
bond
##mers
##ilton
accident
concentr
factory
trains
colonel
ukraine
visit
sie
##uff
tokyo
attacks
tony
e9e
##9e9
e9e9e9
##osen
cad
##roit
extra
##aug
78
##alty
expected
corner
criminal
99
hope
weather
defence
compl
artillery
paid
suffered
harry
claims
switzerland
flow
surrounding
##oto
##kel
serious
walter
150
appar
vietnam
##itable
historian
vel
lam
##mo
driver
recognized
kon
##aine
competitions
##olas
76
lev
worth
mans
memory
brian
says
17th
##ctions
rise
exped
guide
hyp
birds
jane
96
lad
feet
median
bath
nik
##has
fresh
##ello
contact
hem
internal
rud
restrict
##lies
falls
alab
sain
edge
phase
##utional
lands
paintings
queensland
lyrics
interior
philosophy
stream
97
rif
slow
animals
kick
alternative
sust
distinct
##itled
patri
cooper
wel
finn
fern
ethnic
rough
mp
animal
muslim
exam
dv
dream
terror
belg
covid
programme
ale
gor
convention
wy
nad
clark
dry
ans
excl
fict
legend
obtained
injury
##rane
defin
identified
##omer
mes
detroit
dioc
pictures
##iants
84
powers
mobile
63
bird
ukrainian
antonio
aid
lap
##icient
nich
##omot
faith
steam
losing
gram
inters
kept
pod
##wart
manchester
investigation
heat
boat
ty
vert
##iques
vehicle
subur
marked
conservation
ultimately
existing
sed
disestab
seventh
##chers
offers
expansion
continues
ri
##edia
showed
measure
##iab
pope
receive
85
cathed
uncle
67
jump
dol
##umes
signal
commissioned
consult
cape
violence
mall
##eland
resulting
dat
lincol
gib
core
mine
pip
camer
athletic
##met
nuclear
##mes
allows
properties
##uese
pav
appeal
lincoln
##osis
arrested
figures
##orne
repe
hair
permanent
passenger
##ti
kev
##athan
tells
flat
piece
##zen
pattern
portuguese
actually
cris
etc
normal
61
aired
agriculture
www
qualified
matter
effort
insur
##olished
connected
portugal
69
##put
##wise
um
##lets
graduate
##pan
multi
tig
disapp
##ivals
chosen
holly
##lah
##alo
eye
1907
dougl
rapid
harvard
sides
billboard
##enez
interact
subsequent
##iser
##essed
1905
1906
audience
infr
bot
treaty
argentina
##pool
colomb
ambass
basic
ending
alabama
86
incident
suggested
hungarian
density
sid
louisiana
kam
metro
situated
receiving
broadcasting
bachel
cass
founding
standing
eric
magic
ni
chile
decor
recordings
emigr
montreal
hamp
rhy
##asy
##elle
picture
ltd
quant
portra
islamic
sha
behavior
##ovic
theor
##ads
admir
astron
priest
methods
setting
nin
##istry
dean
flora
taiwan
guns
08
71
fan
fighter
##chen
feed
91
hug
##iments
amate
fully
1909
why
retirement
reign
comic
adult
cells
creating
unique
174
1904
northeast
accompan
trees
soundtr
ign
effective
composition
gran
confeder
##ogen
tried
fans
##fully
pione
liver
prefect
circuit
cos
##ishes
electoral
nom
jay
agricultural
chapter
caval
##oted
spot
collected
ern
73
wolf
princess
dism
##ni
interpret
##ws
completely
situation
kit
sector
##ering
##ographer
sunday
fro
unf
##burn
##icut
classes
succeeded
gon
##iva
##uther
##berts
157
gather
johann
recognition
borough
##bro
maur
##stan
lank
establishment
gam
colspan
aged
defined
kin
occasion
fictional
neur
##elli
##aux
16th
approved
shared
blues
81
gives
##fall
grass
talk
cathedral
##ologists
attempts
touchdown
##agan
1901
prix
occupied
##ered
aviation
##rising
belgium
margar
honour
slight
oldest
banks
anthony
09
dj
favour
meant
synt
comput
79
##under
christmas
refused
##ente
scope
07
por
##onian
spok
refuge
##ublin
annivers
veter
faced
alg
legacy
lists
##anna
houston
solid
bart
schedule
87
##ante
bachelor
script
##di
knight
poly
examples
scheduled
roof
92
##agen
raf
fellows
height
phill
cel
introduction
constituency
bapt
allowing
05
82
mississ
bureau
deleg
##lan
##agu
containing
consecut
unable
hab
##joy
##iber
images
1903
simply
##aro
brain
cannot
prefer
locations
grey
hydro
hors
inaug
necessary
holding
##odox
twel
parliamentary
cabinet
broke
anniversary
actions
samuel
bought
selling
connecticut
ay
##time
specif
gill
door
austrian
##hs
synd
pir
asc
hawai
##uri
##lined
170
##hana
98
lgb
soul
moore
rio
treas
funding
##mouth
parks
sell
##isters
##wr
straight
subm
killing
alleged
communications
gordon
universal
achieved
cm
offices
selection
maximum
font
tank
edited
benn
representing
streets
norm
narrow
universities
lane
standards
elementary
04
respond
fuel
greatest
alan
speech
##tv
ottoman
douglas
94
holds
sale
##atures
roads
partnership
##view
sense
##ippi
fought
ranking
locomot
canal
identity
##uz
lgbt
mi
##otes
simple
enemy
##bell
recru
scholar
ceremony
consisted
##ules
focused
anderson
bid
planet
arena
visited
wound
kevin
1902
consecutive
twelve
##utt
166
invasion
ministers
89
##ista
roberts
negoti
tang
else
try
southwest
##dam
philip
motion
d6
##efe
lithu
shell
ends
##ven
##iable
oklah
herself
ss
lawyer
frederick
archive
zh
settled
needs
successfully
6th
06
pieces
##iere
##ayer
gain
colour
tamil
divisions
connection
##idi
economics
pitts
##cy
gett
##atus
fred
metres
##lon
##aks
marie
landsc
application
converted
oklahoma
dc
##fa
hamilton
ms
1930s
attempted
jesus
animated
innov
productions
orthodox
01
dick
outstanding
franch
thor
amateur
cu
session
2000s
ways
bright
inhabit
hat
copies
sor
##ifications
##cop
chronic
frequently
93
##char
##box
satur
attacked
walls
applications
##hist
##where
canc
patrick
wings
gene
senator
consequ
sang
##overs
##fe
entitled
pear
roc
incorporated
clean
orders
##cha
##iller
budget
portion
cinema
adap
##hammad
mississippi
sets
extensive
recipients
resistance
conce
runner
escape
##eals
##eck
##watch
denmark
http
lakes
trophy
##ses
details
translation
monument
contain
coordin
symph
##chi
gym
roger
##iful
alph
##ager
aw
##ardo
lemmon
##room
worldwide
orange
myth
abandoned
##agues
waters
##eton
relatively
gate
7th
communication
graph
homes
scientists
##d6d6
d6d6d6
ford
failure
decre
1898
gaz
audio
stopp
spin
nazi
##adi
baltim
cher
cool
buff
ze
##com
powerful
lac
seem
centuries
gender
specifically
##outs
walker
anna
developing
journey
##zer
##otic
##veland
hell
##iami
string
regarding
baltimore
mist
##inces
extension
salt
diego
tra
chapel
arn
statement
opposed
azerb
##mine
nothing
03
83
buck
voted
influenced
pages
opin
walk
protected
ry
armenian
##gas
employed
unlike
superv
covers
azerbai
wealth
reasons
liga
protein
determined
distinguished
municipalities
##uses
plac
enfor
##grad
##ality
sty
lawrence
advance
miami
qualifying
bodies
shop
##icts
react
residence
matthew
bottom
transm
##po
summ
functions
dates
cleveland
hungary
controlled
pse
incumb
translated
praised
ment
##hors
monaster
remix
rid
expedition
rival
##western
##bra
scenes
rare
doll
juan
margaret
neighbour
criticism
lanc
fried
belgian
investment
gray
laur
soundtrack
institution
enjoy
dropped
##erto
1892
femin
contributed
dave
ahead
moment
songwriter
medie
164
pierre
tropical
##stream
onto
genera
exerc
jord
patients
banglad
weapons
rick
##eston
employees
bangladesh
rum
violin
1899
emergency
recre
drag
request
negative
christop
arkansas
monarch
classification
shooting
hits
physics
views
dall
wels
palest
medieval
dublin
funds
reality
##ulate
crisis
##oz
plate
alfred
pseud
occurs
indonesia
sought
##isted
finance
baby
entrance
venez
trained
02
link
1897
throw
maintained
sv
##ares
finds
shah
contrast
##oslav
##heas
shaped
courts
painters
gast
deploy
socialist
believe
##pur
##incorporated
assass
write
##vements
edin
168
contained
task
defunct
##iform
dak
gm
##dd
serbian
shall
instruct
passing
discovery
##iti
licens
##kshire
commissioner
premiered
##kar
factor
dir
convent
possibly
##essions
witness
decades
pant
##udi
##ache
broken
jacob
##abad
##ologies
##usal
calling
satell
hired
mental
conqu
mining
expressed
looking
endemic
habitat
dod
taxa
##ressed
kan
mik
ng
renew
lan
mps
167
avoid
tigers
upd
temperature
teen
1890
backing
##ructure
##fr
soph
##fort
unincorporated
##icide
collaboration
cricketers
finland
laid
resigned
10th
calls
exclus
welsh
##life
malaysia
wave
romania
sult
##issance
clay
flu
profession
evening
##bish
users
##ui
1896
goods
##ais
revival
pow
##apes
indigen
desert
160
harris
##ayan
knock
subd
romanian
stating
organisation
morgan
utah
photograph
doubles
nel
##oa
emphas
speaking
puerto
donald
none
##con
##omy
chain
protect
##ders
param
drivers
##bar
austin
dvd
##yers
##mi
##ando
shan
bak
tend
swimming
jenn
##uing
brew
adapted
flower
refers
atlanta
alger
accused
haz
registered
edinburgh
##iled
##uls
defensive
##ucks
seconds
collections
advant
12th
parall
pittsburgh
heard
doing
limit
saints
finishing
mile
pas
##stit
mrs
##dale
shape
weak
producers
##iny
belief
baker
##bu
##redited
##ghan
##agh
counties
injured
##12
seed
##borough
skin
illeg
1895
contributions
##aceae
165
cot
existence
indigenous
##oust
diocese
nak
##ithe
invited
romantic
##ropri
burial
horror
manufacturing
photo
causing
##opter
guards
##uccess
flowers
15th
##onomy
ruled
honorary
cs
##ailand
##ecution
offensive
producing
hang
installed
unsuccess
user
172
derived
alexand
barr
councill
hollywood
promote
ancest
eyes
##iner
##iling
poems
judges
excell
toward
formula
##heastern
##ew
##eta
coastal
##emen
beautiful
ric
formal
really
beet
additionally
thailand
expos
drink
equival
ja
merged
causes
##wich
moths
inhabitants
chance
improve
kun
14th
bund
trou
emot
involving
importance
coalition
ff
inher
tail
myst
victims
peters
prisoners
rav
vision
ski
1865
magazines
therap
serbia
reduce
13th
oz
jess
##oen
##rete
documents
slightly
compete
##rome
infrast
acid
someone
perfect
drawn
scar
nas
cc
##umber
proced
##abil
twin
##anne
newspapers
residential
##unk
compilation
save
##ocated
plus
##eless
engaged
kitt
associate
prohib
medium
designer
cycle
##sex
symbol
reaching
conte
1889
composers
extrem
yor
joining
1885
alco
##lins
concluded
finnish
mack
assess
py
phen
surg
stores
molec
coc
persons
ideas
correct
1893
techniques
ther
##prise
cavalry
##gal
##acent
distributed
trio
penins
cul
revol
branc
##ographical
rebu
173
underground
settle
elder
fisher
barn
russell
papers
consisting
creative
1891
grounds
purchase
##itals
guy
opportunity
christopher
gross
##istol
carbon
1894
##set
trying
loy
describes
##liest
butter
assistance
fib
bridges
guine
venezuel
foss
junction
##ashi
##uma
headed
objects
hend
nba
##otte
shad
retail
vik
yug
wol
insc
1861
prefecture
passes
ones
##erse
singh
ryan
##icial
singing
##oba
capture
incumbent
##rac
engines
nord
##gow
##19
grav
169
ghost
hip
og
ml
##erts
everything
lux
heavily
observed
bands
engineers
affected
spacewatch
margin
yout
beck
diamond
ridge
##orph
frag
imag
##olo
index
##oka
discography
##esc
##ectors
120
##chell
##yard
sleep
pale
improved
ov
disney
tort
##uate
comed
##rif
johnny
rating
##18
##isf
transition
dies
##key
##zi
releg
crowd
evolution
journalists
yu
eu
tick
##ables
maine
bush
argued
mathematics
8th
assault
argentine
cler
pandemic
rib
tow
historians
brick
getting
cloth
authors
width
nev
saturday
##do
nash
afghan
crossing
atm
restaurant
sultan
strength
##rell
fef
iranian
infrastructure
##ete
##load
brooklyn
campbell
adjacent
##iop
##come
depos
resign
liverpool
humans
museums
##mingham
depend
seattle
##ographics
##iac
editions
commune
teachers
franchise
tact
##umin
starts
battles
shir
1888
kos
dh
warri
##sch
vinc
kelly
fefefe
ghana
designs
delay
medals
chanc
mong
##iki
kum
starred
testing
600
##lusion
cla
11th
downtown
substit
##angel
##eased
duty
jimmy
pus
landing
vertical
gent
##inae
serie
carp
passengers
demographics
salv
broadway
lun
gymn
lud
warner
revolutionary
##while
silent
denn
diet
##ycl
painted
executed
drew
##idel
circle
tack
##alia
flo
driving
quite
photography
##taining
##die
ult
serge
renov
##encing
explor
measures
ceo
rhyth
gets
glas
decade
michel
values
##een
##nia
linear
birmingham
angl
datab
##fri
##din
tier
locality
1887
battery
ambassador
##etr
hurrican
orle
thirty
##eness
mond
##uda
dragon
amend
charges
context
##enh
alp
circum
va
2010s
mak
##iya
##ontin
erect
leban
sah
relief
sections
enl
resolution
dress
discip
coaching
karl
nan
yam
proved
##rum
electron
volley
actual
##wall
##apolis
filmography
fired
networks
##etime
##enne
tob
fantasy
dang
mars
courses
eighth
diagn
wick
poets
factors
artistic
repeated
lod
chose
exact
merchant
jordan
##ture
cod
colony
orleans
pian
##ifer
noble
closely
800
colleges
dismiss
entirely
stanley
juris
sugar
tribe
vas
stro
norman
##boards
##attan
harm
rejected
250
provision
sarah
dating
pic
items
imprison
sequence
truth
committed
disord
vin
##11
##estyle
membership
hid
childhood
bruce
##lington
occupation
profit
pd
consc
yugoslav
wes
typical
dre
1886
regarded
displ
carlos
businesses
lig
alberta
youtube
nr
##ucing
amaz
winds
interests
alleg
strategic
dallas
cous
##organ
nomination
purposes
kennedy
briefly
##pass
perh
videos
daughters
rescue
manusc
earliest
portland
catch
##going
eliminated
##ensions
combination
9th
inner
leads
bernard
perhaps
bun
wine
enroll
joy
##issions
skills
arranged
nickn
lingu
sak
tie
##ports
archbish
constitutional
summary
bin
billy
manh
legislation
##rest
ug
##pson
##agi
submar
terminal
vienna
charter
liqu
adventure
solar
madrid
progressive
congreg
arrest
soldier
raw
scheme
cha
abbey
pel
rooms
sib
##eno
##enz
territories
ownership
##ridge
##rik
didn
gur
rit
sisters
##father
analy
##car
##uits
invent
operate
laboratory
fruit
notably
occas
1864
##asi
##ascar
poem
formally
fit
thick
leaf
reconst
##alf
##orship
portrait
coff
isol
honors
finding
soil
defeating
furn
##efa
tied
charged
opposite
substant
scand
gardens
delivered
operational
triple
bind
##oni
##ussion
##etta
abuse
entre
veget
lanka
reaction
##iah
carib
window
spiritual
symphony
equivalent
stages
damaged
hampshire
##rah
descend
hub
centers
heads
debuted
pitch
cord
mechanism
jar
1920s
thompson
parallel
jos
##bul
scr
voting
controversy
eug
activist
bio
rice
##mus
##phone
anch
attached
##anny
responsibility
thin
hunter
grah
nova
stewart
racial
##nie
##ogy
communes
bail
##aling
uefa
frances
##ctic
prad
happy
gulf
tib
bishops
credited
##eed
suicide
marath
breed
routes
venues
##ycle
yank
marketing
##ommod
playoffs
##15
policies
masters
depth
162
restoration
superior
ted
##rees
##entially
##atherine
camera
credit
roster
1884
##lying
mitchell
seems
credits
volleyball
shut
manga
bom
showing
rebell
wounded
nelson
peninsula
nurs
##ogs
recall
regularly
##16
adams
morris
eleven
stu
cited
hud
mail
1862
sweet
##gie
##orial
mills
1882
benj
oblast
atmosp
lawyers
jason
paraly
activists
expression
gary
##mund
restaurants
rena
##hetic
severe
restored
##usalem
pc
##laim
##ido
accommod
pig
ruth
wet
chi
allied
##acht
eval
##hard
ages
industries
dakota
##14
agencies
device
legislature
egyptian
##17
duties
commerce
kilomet
initiative
cryst
marshall
jerusalem
##rog
criticized
osc
abc
learned
filip
understanding
milan
##lev
##heless
meanwhile
declar
experienced
robinson
clock
wonder
##aware
wright
biggest
gabri
anime
chor
returns
explos
##ario
delhi
businessman
beauty
azerbaijan
clan
manner
franklin
eat
admitted
mason
filmed
##bes
wildlife
##osph
ian
crimes
sustain
lloy
expert
easily
acoust
pont
forum
otherwise
marit
evans
##apping
strip
replace
portrayed
opinion
plane
advantage
##urt
##igation
giants
##ovo
basin
1881
stands
sculpture
questions
aspects
cyprus
nut
1883
knights
##rons
penalty
linked
wang
instrumental
wool
##aza
democracy
mouth
commem
depict
divor
tech
##low
##antly
satellite
cash
mul
##verty
shore
##intend
##wal
1880
lav
chand
##ategy
worksh
ivan
archaeological
##ranean
md
scholarship
hindu
benjamin
tong
##inian
strategy
survived
practices
fifa
thing
landscape
##bir
1863
1870
participate
synthes
sul
moh
vul
murray
carrying
voiv
philippine
experimental
monastery
wedd
instruments
serial
rifle
temporary
lloyd
determine
accompanied
insurance
##rot
##bean
nigeria
glasgow
poverty
##nik
tourism
storage
wrong
##akia
##uster
recept
thousands
##bach
meters
maintain
stood
##abled
afterwards
retained
##fare
##nat
##anz
warren
monte
option
speaker
costs
nebr
##raham
colombia
enh
tum
assumed
demolished
##apped
nicholas
lions
pm
interested
##nal
ago
163
representation
alaska
genes
message
##ecess
guil
arrival
architectural
graham
nebraska
phoen
mode
hosts
buffalo
reun
acquis
springs
barbara
safe
ninth
bil
##idad
classified
mam
##rs
##berry
friendly
percussion
1877
hav
##40
mediter
accur
intellect
##ielder
repair
carter
##ropod
lion
rig
charity
statue
panel
bic
torn
##othes
volumes
1876
vanc
##rov
subjects
organis
siege
caught
tribut
forests
##iri
parent
monitor
cbs
lp
mini
boundary
tries
chemistry
lag
file
universe
1878
talent
filled
concerns
##ingham
isa
accounts
rush
##jar
##enberg
unus
lock
successor
##utation
semif
filed
mainten
##rises
preced
mig
tub
##oca
syria
manhattan
##oh
##ouver
##aments
chess
incorpor
motors
yorkshire
dated
nun
##tha
covering
rhythm
nominations
domain
tools
transc
drop
remember
persp
difference
bengal
kath
##phan
rangers
thunder
pradesh
hein
repr
festivals
dup
math
luis
boss
##kov
##oria
archives
martial
stopped
kw
##ilst
pharm
learn
moll
##van
##leton
smart
saudi
struck
tunnel
pup
##ishers
##rec
guer
charlie
dual
gone
##rent
stamp
alice
encl
adela
parker
wayne
bert
##ski
##mel
##icit
bears
##ading
barry
concrete
resid
operates
represents
##ruption
1875
photos
##nan
1940s
transit
turns
encycl
zero
participants
stret
baronet
voivodes
ns
##mat
appropri
oliver
maintenance
harvey
lis
rising
timber
bulgarian
croatian
extremely
sz
##illo
##grade
movies
guitarist
origins
answer
camps
mamm
significantly
paralymp
inqu
##anche
##ulu
arsen
resemb
movements
standings
voivodeship
bacter
hut
##lishments
clinical
banned
##keley
vary
##aken
muhammad
appointment
bulgaria
vancouver
fishing
climb
peru
degrees
shield
costa
beij
induct
lind
meg
wooden
separated
sloven
andy
flows
researchers
database
foster
vit
agents
themes
horses
au
retre
1860
##opping
jury
kg
runners
appearing
devices
goth
##vere
##ogle
sao
##owski
giant
##omen
worship
##gests
channels
roughly
whilst
155
popularity
muslims
till
inch
genre
summit
archbishop
wu
branches
caribbean
##lie
grace
earn
airlines
suggests
wire
159
voy
##dles
neut
tourist
ensure
send
senators
cinc
publisher
viewers
##rimin
technique
##ipping
proposal
coron
1879
sharp
##ilit
relative
losses
vessels
##aca
aggreg
berkeley
##stad
laure
rico
156
##mill
collect
mediterranean
beijing
signing
debate
temp
coverage
drawing
adaptation
guinea
adults
mud
arabic
prepared
aa
##eto
bra
markets
tip
##borne
equipped
fixed
hawaii
##face
##orf
breaking
1868
illegal
kiss
seb
entering
richmond
quart
differences
license
employment
stayed
syrian
adelaide
jama
ober
pink
wed
abraham
extreme
##atically
prel
easy
##roc
##rin
1867
henri
participation
heb
uncredited
mey
##uki
##oga
personality
cort
uss
crash
tele
luther
visiting
threatened
disappear
kap
sword
##otype
hir
wag
forming
https
##yne
##eria
##ication
pole
roots
pron
changing
pure
blo
125
surviving
nur
##ashed
psychology
narrative
##riev
competing
offering
##prene
cultiv
ferr
alcohol
ride
##fs
##olia
releases
replacement
capable
##pm
158
entreprene
helic
len
masc
ports
supposed
tribes
corporate
mechanical
rates
curt
definition
encyclop
butler
meets
sentenced
##state
platforms
nepal
kay
##ikh
trials
charlotte
ibn
cincinn
rounds
admiral
indians
1871
surviv
##olid
liberty
aur
missions
volunteer
cn
##master
broadc
apple
##aha
stef
characteristics
disestablished
##anni
larry
premiere
##feld
##upithe
encoun
components
herbert
phoenix
cincinnati
architects
continuing
heir
##abi
geomet
grandfather
requirements
handed
boxing
griff
##upithecia
cards
##25
blind
visitors
ready
processes
jonathan
bold
##olition
pret
mines
radical
##ophone
##bot
surrender
caf
diction
influential
reinfor
experiences
vlad
phone
buy
hyper
##fo
evil
passage
##station
##amese
crus
bog
mounted
baptist
jurisd
##uous
manuel
achieve
ip
kol
##ocol
google
##othy
moder
screenwrit
gilbert
overview
##coming
##urg
seeds
moroc
hunting
craig
rar
##cement
##dr
graduating
excav
gust
rou
##zes
specim
bent
rally
##arn
boats
caps
hurricane
##teenth
telec
borders
principles
reprod
maced
sic
solution
filming
switch
adding
antar
1872
involvement
adopt
ral
plain
chancell
ein
##imir
carrier
##itarian
gear
hob
outd
buc
##asha
anything
ech
sung
yang
##obi
duo
anthrop
subt
truck
indoor
secure
longest
villa
speak
canton
##urers
maritime
sap
intent
seek
pleas
assign
select
integrated
surgery
grave
consp
modified
supporters
denied
##arus
hispan
raise
anglican
pi
ris
##ennial
journals
convicted
withdraw
suspended
dna
ki
sig
pregn
protests
segment
nevada
cousin
cable
icel
shock
##ahl
coat
##cs
##13
##enos
stal
peop
fled
110
advertising
prol
##illing
libert
##hal
##antine
bris
filmm
licensed
photographs
waste
woods
preserved
outer
##orted
jung
annually
commemor
##enson
injuries
wides
1866
overseas
bristol
##olds
minority
1873
tenure
replacing
mend
pyr
##ront
##rehens
ruling
hitler
##enburg
##estone
1874
horiz
iceland
das
suit
declined
##erald
competitors
earthqu
kirk
auck
vern
glen
punish
tests
fitz
##emp
check
powered
animation
hugh
auckland
theod
##iration
driven
casual
armenia
emigrants
cave
##iors
holland
##amental
printed
cotton
aber
ecc
##net
##lings
studying
depending
helping
##rose
facing
happened
sponsored
kazakh
toy
trinity
surge
illustrated
##acher
shif
fi
liz
everyone
strongly
wedding
nbc
zur
beer
volunteers
sanct
approval
elevation
rebellion
##night
subsidi
botan
kor
cooperation
##aser
##amer
regime
##boy
absor
dy
peoples
gau
##fish
##aman
prostit
guar
slav
ig
revenue
rah
recur
electrical
ottawa
celebrated
##oder
nee
##wig
victorian
illness
##hill
fasc
quad
ethiop
immigration
##fam
##fts
##ivan
continental
funded
bible
shopping
blocks
ide
tap
friday
##istani
harbor
completion
weekend
citizen
surrounded
munich
increasingly
vincent
kle
satisf
##ipe
requires
stuart
##hum
rook
persian
explained
sentence
keyboards
random
affiliated
##igible
contribution
teach
##eva
130
1000
sask
##ingly
glac
qualification
struggle
intellectual
auto
false
benefit
organisations
signif
controversial
dw
##acle
orb
##pping
formations
nu
spell
scientist
recommended
##fast
terry
montana
youngest
denver
##tors
##arked
grown
defenders
minimum
##thy
jobs
voters
jefferson
sole
collins
reporter
musc
capit
biological
latv
bringing
##cing
athens
1857
bav
lex
##udes
output
whereas
processing
##anim
phr
turner
choir
##mith
understand
belt
dil
pere
anat
prompt
700
leagues
frequency
##donald
wellington
achievement
diplomatic
provinces
barcel
reservoir
gamb
##away
retriev
railways
madison
matters
constituencies
sudden
##kan
meetings
hole
skill
treated
merit
pull
##yon
##23
orn
occasionally
kids
tat
##lif
incidents
##izer
guilty
tir
##unction
presby
bars
spider
scout
##oko
amster
patron
copy
##liga
##eda
byz
sporting
acoustic
aar
maps
stere
taxonomy
monthly
diameter
nomine
ble
depression
massac
tribute
##inction
abroad
essential
##cos
1869
pon
triang
##phis
##pread
##echn
exception
##soft
harrison
cardinals
camb
desire
birthday
peaked
cancelled
widespread
gy
kab
##ogan
complic
guardian
bach
tul
##gio
seal
warm
##rett
amsterdam
##engt
electricity
##ocation
liberation
dennis
ft
subsp
cock
neil
marry
nit
##gets
trading
mixing
##break
stable
##iden
newton
contested
decline
evangel
rocket
pine
##fielder
neither
commons
##ribute
garcia
##holder
croatia
spoken
dangerous
strat
jerry
##xual
##ema
shares
farmers
regulations
wake
##eon
##alis
prosp
thriller
detailed
palm
indicate
lamb
technologies
donated
hospitals
ferry
inaugural
tool
##ersed
##iko
venue
rever
considerable
gw
sean
##enda
prep
smo
societ
mant
indicated
##enses
guild
predecess
saskat
##du
##uration
alter
105
##friend
pruss
intermedi
canon
murphy
similarly
##iciency
##eries
acted
harold
multip
stress
##oda
gonz
settlements
cogn
##equ
peer
reputation
##aho
destruction
audi
weapon
vil
##eenth
syl
milk
athlete
erected
nhl
proport
visible
fol
lip
##eing
##agar
undert
mystery
resort
elite
attributed
detective
texts
belonging
##tz
##ripts
operator
140
keith
relationships
##know
gol
sessions
##imp
seeking
sounds
aimed
ralph
##vis
playwr
posted
arnold
hispanic
pent
##fia
##vo
prest
disband
knew
sheriff
patrol
##omon
assisted
barcelona
##encer
intersection
pioneer
kas
##rys
outdoor
##gart
supports
##iji
indicates
##fly
##bane
manor
acclaim
bullet
gif
ras
strict
mull
valid
emerged
effectively
concerned
rolling
diseases
vessel
collective
##haw
instance
lob
bobby
##igo
punk
drugs
patt
chan
##opl
marks
edwards
democrat
##oking
existed
lithuanian
cp
##rant
##80
##agement
acknow
historically
ernest
ninet
wants
playstation
cargo
prosecut
advisory
turning
##keeper
alv
bry
eddie
legion
hundreds
bennett
ced
tol
evac
recommend
##aco
tempor
clothing
stem
lasted
subdiv
unp
arsenal
##math
##osaur
##riers
##avan
parad
explo
reportedly
optim
cec
devil
jet
gastropod
jak
##ivia
##oked
memphis
tournaments
##holm
confederate
circumst
aj
##gate
##inter
##icon
##iph
journalism
counsel
##agre
##phal
defending
competitive
civilian
##what
hond
wo
leo
allies
intention
biology
dancing
yale
##uy
##owed
chase
##etti
academics
cum
tenth
wells
helen
hence
derby
clinton
bb
dock
governments
somewhat
carn
heaven
ensemb
rogers
##fers
##alam
##eli
##achment
regulation
democrats
suffering
dors
welf
flash
153
bour
##abilities
##ixon
apost
1859
cosm
enforcement
sd
tiger
hearing
##engthen
nac
##ml
##omi
##eler
delaware
touring
conductor
##erg
plastic
##endar
publishers
afghanistan
craft
vib
spoke
tours
scores
attracted
comprehens
autonom
virtual
##itis
grap
phillips
styles
##tra
amongst
##ichi
stol
##ertain
behalf
closing
nashville
orch
businesspeople
gradually
1850
resource
cuba
sop
thro
shin
abu
perp
massive
cauc
steven
venture
aux
duc
hull
midfield
claiming
##castle
sees
##usted
##oker
hann
excess
##achi
advanc
##after
vietn
physician
buddhist
##graduate
##istical
perry
consolid
discrimin
eagle
mick
##anes
huge
##mm
dogs
pill
phosph
extinct
rodrig
vietnamese
##mate
vegas
blog
administer
keeping
fellowship
hidden
ou
pub
##isha
sympt
consumer
##itter
chal
simpl
couples
swimmers
encouraged
amendment
##icance
missile
ratio
adventures
##itars
loop
berg
tomb
arabia
##ulus
marqu
aftermath
giov
##60
arrangement
sacred
##amo
chel
##swick
tram
##brid
departure
immediate
exercise
catherine
##opes
##opsis
exhibitions
highlight
anyone
cricketer
absence
filipino
significance
##ester
forwards
relev
walking
commanded
##kl
presid
pakistani
103
cork
spar
manif
wilhel
eagles
rebuilt
tales
##asia
seeing
##otted
opponent
venezuela
dum
sut
##bin
component
populations
versus
violent
hebrew
rated
riding
acquisition
christians
1855
stanford
bosnia
##zhou
bras
burg
##ovsky
embass
##avery
cylin
##onymous
jin
vast
affair
manit
##ouses
assassin
##ingen
##chang
chlor
campaigns
##chy
procl
##rix
cliff
thanks
essay
protestant
customers
ard
cloud
missed
##ilia
traveled
locomotives
cb
daw
##gov
##person
##uli
##opol
##ribed
presbyter
trin
supplies
chester
opponents
leonard
moral
1848
compositions
##riptions
remainder
framework
forg
artific
cruc
dictionary
##ulum
##sea
germans
obtain
manufacturers
rhodes
printing
bug
genetic
krist
challenges
rhe
files
presidents
memoir
ritual
identify
concentration
##olph
##erted
fabric
ecl
marvel
amy
worker
autumn
dominated
jacques
ceremon
##unc
categories
wis
leeds
1852
steps
closer
attractions
##rat
dispute
immigrants
gap
relocated
guitars
paulo
christianity
partly
laz
manila
flav
valu
militia
episcop
1858
maurice
##gun
unanim
simult
raymond
apartment
##pher
expect
writes
confront
1856
exclud
sequel
liquid
simultane
gig
xi
victim
##su
ana
herald
##auer
breast
congressional
negotiations
##family
aub
sket
##bel
##esses
venice
rect
##oi
##cent
##000
harmon
welfare
sull
##inus
atom
uniform
phd
florence
falling
certific
eldest
heroes
neighbourhood
shangh
##backs
congo
departments
viewed
tibet
mold
reed
layer
implementation
opportunities
apparently
algor
keral
useful
balance
punj
commented
somers
lifetime
councillor
raz
149
romance
traded
begun
motorc
clarke
brisbane
fung
hack
urug
##esco
proof
154
generated
yield
##lu
##iture
vermont
copper
achievements
predomin
alternate
cox
joan
harbour
managing
crypt
aus
mba
##sters
belonged
pedro
algorith
xx
##gom
slave
judicial
##iece
facebook
unusual
relation
urugu
##izz
bonus
hudson
fold
mtv
##mun
##uin
alge
attending
julian
brunswick
alive
##issue
ji
##urb
uncertain
renaissance
partially
corp
##ounced
signs
chancellor
##mates
##dal
##ivery
emir
characterized
godd
fate
registr
throne
facilit
abdul
lose
push
ongoing
trick
subsc
organised
completing
molecular
shadow
sebast
##acon
isle
periods
limits
shanghai
3d
thinking
normally
fisc
##aming
clim
percentage
benefits
gregory
kerala
mys
render
spaces
moves
traditions
tight
ecu
towers
##ovich
delivery
insects
friedrich
assessment
advice
syndrome
kot
##rors
thai
##ansk
elli
##ographers
francois
cartoon
recovery
nest
anarch
##add
doesn
##ommun
choose
recipient
interviews
murdered
boundaries
ace
viv
##terior
##aba
##ensen
supplement
ballet
fauna
displayed
rocks
##ław
entrepreneur
##ampton
##endum
thereafter
furthermore
propag
submarine
pall
carr
myster
holiday
convinc
preservation
sprint
compiled
warriors
aster
hed
clergy
newcastle
relay
secured
participating
withdrew
anchor
frequent
grammar
ht
notice
145
wallace
##anthrop
##thus
trig
cole
moz
possession
focuses
therapy
bone
##inson
##ampa
dust
ties
##24
ask
##ulating
reduction
temperatures
tale
##aters
chick
beth
##roph
1800
##unda
empt
tyr
##eme
nevert
ladies
exem
earning
variant
enterprise
1840
petersburg
##care
##icate
reporting
bened
recovered
debuts
##bound
##omo
assets
consort
nevertheless
lon
porter
##ige
spart
spending
apply
decisions
endors
##ucker
##oslov
##dp
##isch
tox
##oshi
indonesian
occasions
prelimin
sick
judg
absol
riders
##acion
microsoft
manitoba
##bow
forty
##iaz
innoc
rhode
warsaw
disestablishments
comprehensive
meat
inspector
krish
circumstances
passion
closure
suburb
nc
exposed
publicly
malay
machines
gothic
nerv
northwestern
##chewan
justin
saskatchewan
##26
##urst
bever
spac
##ourse
watson
ceram
##rupted
dramatic
ultimate
##umi
persu
automatic
advocate
haven
pump
swit
manufacturer
diversity
dismissed
##folk
##nell
##aste
internationally
extent
topics
luke
rookie
dame
##aire
describe
wearing
##ffield
deck
motiv
##hua
implemented
##iveness
lak
##ration
##eb
exists
1854
discussion
sudan
sier
##uba
remote
psychiat
picked
reh
prayer
legs
anglo
strange
vii
coffee
unions
compens
##anga
interfer
freestyle
voices
lisa
trag
doctors
structural
certified
roche
unsuccessful
remove
qualify
reviewed
talks
napole
wik
##enders
147
establishing
##lain
monuments
patient
connections
ceased
territorial
deployed
subsidiary
##eters
ideal
ecuador
reorgan
edmund
protagon
debt
makeup
fifteen
pitcher
discussed
friendship
##zig
##uka
survive
smooth
peas
sox
peng
##sis
locally
founders
106
greatly
bald
grove
wrestlers
recreation
ces
jag
sitting
##esty
referendum
abstr
orient
favorite
rapidly
elsewhere
jurisdiction
ranch
##ppe
novelists
dominican
drafted
arrangements
tanks
czechoslov
gabriel
revised
garrison
##emed
listen
settlers
lebanon
fen
kee
suitable
assists
valent
substitute
oscar
stakes
##uj
##ahan
epic
petition
innings
southeastern
innovation
yankees
intermediate
##oons
artwork
reconstruction
##ystem
acres
144
obst
nem
##dish
lowest
inducted
##iot
fraud
##abe
angels
substantial
isaac
lights
scrap
perce
ranks
reyn
##andez
sovere
##hyl
concerts
nearest
stein
##point
tunis
enjoyed
crystal
valuable
sovereign
annex
celebration
cruz
vulner
byzantine
symptoms
sara
##origin
asks
shaw
impress
idaho
proteins
gul
##aru
##opy
strengthen
delta
tommy
heavyweight
algeria
congregation
root
##place
fighters
kenya
worst
usage
aggress
##ensively
editors
##rington
drummer
##pedo
rent
##iour
##born
gra
farming
transmission
governors
louise
interactive
inhib
requested
promoting
alpine
artificial
##osc
manual
produces
craw
zo
##lock
##onso
##lee
ek
wish
outbreak
conclusion
honey
waiting
wyoming
resignation
wilhelm
discontin
handball
ranging
sculptor
compound
philanthrop
grades
##21
disaster
##keep
liu
traditionally
veteran
##oring
download
funeral
alpha
relegated
cott
##esa
##elin
libraries
reserves
attendance
chorus
##ortion
morph
mcg
practical
##rill
theology
prague
grandson
concerning
surnames
danny
##jection
shift
aires
statistical
brands
oakland
##iations
##oro
##uto
##iao
shen
146
montgom
##ilis
trent
albania
retro
nights
##elia
thorn
depicted
##encia
photographer
exhibited
montgomery
ost
##tering
describing
fundamental
widow
scotia
buenos
101
1853
principle
fortress
elevated
ensemble
preliminary
rol
colors
presents
poison
citations
midfielders
bout
gosp
deuts
manage
partial
pete
mathematic
nigerian
vladimir
hale
jor
##using
norfolk
##icking
manufactured
##othe
belarus
torpedo
acknowled
episcopal
##icas
franco
susan
earthquake
punishment
rams
instruction
buses
priests
psychological
burials
cf
cattle
pairs
ster
notting
migration
tut
conj
influences
somerset
exceed
##athy
##minster
sailing
nephew
hughes
##uro
chron
##rows
travelled
otto
terminus
ratings
##isp
signals
chiefs
semin
sculptures
embassy
##atin
neo
aborigin
agree
distribut
verse
condem
config
pursue
submitted
lok
stim
sheffield
arriving
detail
latino
devon
563
continuous
feeling
patterns
experiments
hearts
gem
##orous
brien
perspective
awar
cun
inspiration
preparation
aids
herze
gameplay
burned
atmosphere
giovanni
gates
ingr
tract
guests
generals
##aji
keyboard
ruler
permission
presbyterian
##aved
##quet
108
radi
housed
awareness
##aran
104
connecting
refugees
kre
##ju
##iry
##rift
comparison
arist
maz
exposure
hier
jail
##27
##ugu
chrom
fastest
herzegov
hass
##bek
##eri
marg
footage
possibility
premiers
laser
cameron
exit
oral
loyal
decides
warfare
reveals
143
corruption
grande
1849
besides
schm
bankrupt
jerem
ahmad
gift
pond
##opa
calendar
midfielder
merger
sharing
mercury
bj
sight
grows
locomotive
##etical
##oku
##iba
vacc
pec
##right
##rection
##brand
connor
updated
descendants
miguel
sullivan
todd
107
contributing
initiated
diverse
gentle
autonomous
##arians
ahmed
eggs
lithuania
##uations
defender
mete
1851
utt
vid
originated
bombard
ranges
##brook
kad
##wald
writings
raising
nottingham
danger
tons
conversion
responded
isolated
execution
accessible
encyclopedia
gauge
nancy
nationalist
##isms
redes
wealthy
stones
brack
hammer
palestine
##haus
##ching
revenge
dancer
fernando
gmina
pianist
eugene
rey
lope
ware
patent
princeton
neck
semifinals
##immer
mirror
disorder
gly
theories
##ische
exile
mann
mead
##aukee
essays
##alg
##asp
##uta
doors
mainstream
dynamo
declaration
faces
rape
chore
leop
literal
globe
wait
vocalist
relevant
dow
gn
wer
cycling
franz
##mania
extract
##aughter
martyr
lucy
removal
conscious
appropriate
tone
fee
##osexual
139
##apse
eve
laura
presentation
panama
##ieth
intervention
dawn
exclusively
societies
##osing
##ears
manip
1847
essex
ticket
reich
gren
landed
recognised
stockholm
automob
##pro
spa
collegi
oxy
delayed
kra
##bus
alien
eligible
bend
palmer
yugoslavia
##rim
herb
eds
uprising
underst
hym
##iliar
attempting
decorated
veterans
presidency
herzegovina
uc
autobi
dreams
yun
##atics
monkey
farmer
theatrical
fossil
##ourt
swan
thorough
drinking
binding
##ding
cannon
demonstrated
ronald
lep
shakes
raid
fifty
clearly
roth
polar
methodist
manuscript
conspir
recurring
albanian
boulev
trouble
neutral
##zon
##most
##eca
##cester
resol
abo
respective
exclusive
dent
dominant
algebra
jen
##sy
saved
excellence
marathon
cou
##gus
##cht
beating
latest
involves
hr
chamb
radiation
cardinal
##airo
##ija
##exp
owen
corresponding
capitol
plains
bruss
aftern
quiet
restricted
amazon
disbanded
vine
##bank
##ilian
bills
penal
quarterback
layout
oval
##29
##esters
##aku
##ibilities
associations
numbered
mck
594
quantum
##isan
beam
marin
flights
##yler
rocky
pointed
editorial
pearl
beetles
procedure
authored
killer
conflicts
gott
##lem
reef
hey
##atta
increases
administrator
predecessor
lub
##lag
##asse
heights
sep
gael
##uces
infer
##roe
##pert
##monton
ramp
sack
##star
##issa
cros
demands
rabbi
variations
voiced
logo
bench
baj
##notes
##urally
defended
implic
screenplay
emotional
lopez
ming
tin
tok
##stown
span
marx
inhab
songwriters
##riet
medall
slavery
lodge
rut
vital
##wing
##omed
##rogen
interaction
speakers
hindi
cuban
graphics
sierra
soap
toured
dialogue
dys
##cott
unn
corrid
mosque
##28
##oured
companion
designation
readers
philosoph
mv
wan
##waukee
spy
imposs
telegr
mate
depot
mainland
scandal
##ocaust
graphic
telling
##iol
scat
intercept
metre
##aeus
novelist
rebels
preferred
kate
##itary
##abel
1838
styl
warning
highland
solutions
improvement
ordinary
hod
##ocene
variants
1834
antiqu
fulf
pollution
mg
rovers
##pat
##word
##uez
holocaust
crossed
enemies
flex
##enter
spencer
##oven
129
proceedings
restrictions
dug
hast
##roid
pride
compact
##lla
specialized
advisor
apparent
interpretation
iz
##hall
stake
abolished
organic
henderson
stroke
mathematical
vamp
##ovan
dischar
interim
khal
boulevard
rag
##mod
edmonton
1846
dissolved
elimination
ellis
mansion
rarely
collegiate
##nor
twitter
affect
hamlet
collaborated
meteor
believes
sandy
tanz
##uchi
sufficient
hood
##itic
##oux
devoted
monday
chat
colin
receives
error
1837
eis
fitted
nasa
##eare
installation
##case
##onna
1500
examination
##mons
##bid
looks
commentary
conventional
enrolled
shops
departed
civic
belongs
nobel
brussels
##inum
prices
doctr
mumb
rider
##ht
brass
indeed
milwaukee
travels
burning
shakesp
mt
##lass
dee
coinc
mim
##inations
##ourg
109
geographic
##arez
148
##heng
healthcare
##ben
##icia
123
permitted
kitchen
ya
##iago
afc
opens
felix
cypri
jets
mcl
rip
shipping
grid
southwestern
reducing
qualif
informed
pilots
wrestler
bast
hide
wider
unity
##iev
commod
anthology
mahar
winn
troub
quartet
stefan
discrimination
jav
mood
vest
##vas
stops
boeing
monten
tribal
touchdowns
excellent
lenn
##itus
airports
hamburg
##boro
sailed
simultaneously
relating
polo
classics
reds
seminary
galax
##law
guid
interc
banking
pilgr
ud
##usk
orbit
bases
##ugg
variable
curric
visits
prisoner
simpson
aggregate
kyle
##mother
ing
##marks
1835
kumar
##body
##ophy
compr
1842
functional
dependent
tape
sure
assum
airfield
streak
thirteen
##ettes
approached
behaviour
saxophone
tea
governing
avo
1845
##strong
cfc
##vent
heath
subc
graduation
columbus
bub
lamp
canter
##aa
##ieu
explan
namely
telephone
ore
yan
##oning
decide
guang
indianapolis
survival
republicans
johannes
enthus
boards
regiments
extensively
bomber
kazakhstan
incomp
swing
idol
slaves
identical
bearing
piet
##ecies
adrian
edu
surrey
belgrade
feder
tributary
##uman
127
113
visc
dad
riv
sony
##rano
poster
1839
kidn
morocco
##omorph
##iler
##ecraft
unless
afford
meh
hybrid
cabin
casualties
carries
backed
feelings
inherited
tet
##icz
creator
succession
lords
##gary
tested
frontier
parishes
durham
shrine
workshop
vig
aerial
inscription
nominee
shakespeare
bm
##lus
thesis
suz
brah
mario
commenced
##awi
crack
reformed
difficulties
hs
##bis
reel
evolved
airline
governance
stevens
tackles
dict
##atar
boxers
voyage
temporarily
gest
td
##furt
explains
1843
melod
reforms
buddh
##fire
##ku
chate
##ogne
improvements
integration
citizenship
archaeology
blow
rankings
citing
lynch
robertson
massacre
##teries
afl
lung
expensive
chec
northeastern
hd
vall
centres
feud
interstate
clerk
bats
##var
##ede
twins
calgary
angle
missionary
josh
chad
perth
prototype
concepts
renewed
certificate
oxygen
##reen
##andra
engagement
drain
signature
cathol
rowing
predict
sacr
pursuit
tactical
##music
bailey
mumbai
##ondo
coins
bradley
jal
stall
divine
approaches
treaties
##bbbb
patriarch
administered
##yo
##illes
##ardi
appeals
interchange
remark
lighth
sod
rept
claud
commanders
lucas
objective
catalog
sample
dag
stick
sham
beta
emma
posts
palestinian
paras
noise
provisions
helps
bombing
axis
bis
fier
maker
##ullah
georgian
egg
bundes
sergeant
kom
pound
##cr
deemed
options
ci
lesb
istan
servant
underw
bros
1844
targets
indicating
iraqi
unsuccessfully
beetle
uz
##eni
pla
shi
102
128
looked
luxemb
mast
witch
indie
allan
listings
eps
tampa
ves
accum
estonian
harper
middles
chest
steep
breeding
forth
reaches
plaza
hardware
flew
placing
spend
parade
timeline
quint
##ombe
fallen
goalkeeper
challenged
##rt
theological
##enaria
##eted
bryan
traveling
customs
istanbul
gut
##rooms
usual
focusing
temples
uttar
wander
ammun
estates
sas
##esse
124
extend
imprisoned
##iology
##alt
editing
terr
empress
diplomat
cyclists
impossible
lum
##orro
##naissance
experts
talking
accessed
1812
aboriginal
vor
localities
presenter
mutual
pirates
casting
crosses
gods
fortune
wre
zam
##iest
##far
##found
##oric
indies
hotels
analog
cutting
crist
copa
nickname
bam
wiz
zimb
stern
leip
referring
operators
developments
petr
grammy
ffbbbb
##uras
pray
undergraduate
murders
mythology
claude
wals
##igar
117
rede
rachel
1830
resumed
137
patric
ethics
reconnaissance
sustainable
gospel
ammunition
dos
##fi
agu
endanger
privile
1841
preserve
dolph
helicopter
aaron
hels
misc
##bol
##etes
##irm
138
concur
enters
martine
cornwall
oriented
allegedly
subspecies
aims
##hd
##hp
##eff
load
##atsu
kash
rust
reop
##graded
flank
strand
1832
oslo
##oper
##quin
legit
altitude
columns
canterbury
finger
pt
deer
collapse
landmark
threats
mechanics
recalled
enact
135
duncan
delegates
gand
lah
##iate
##ados
##anton
firing
export
virus
consumption
switched
waves
##fit
##kt
##adier
comfort
tril
client
mang
carroll
tenor
afternoon
##astics
putting
butterfly
punjab
registration
gel
rs
##rage
chuck
comments
##ellation
##anning
reverse
126
burns
marcus
jennifer
jaw
kok
pock
supplied
##atorial
sixteen
sevente
speedway
difficulty
neighboring
lawsuit
aboard
hil
##fu
##lord
##apur
##avia
spots
committees
1836
computing
kilometers
##xi
##ør
##icing
##inda
##oya
purple
boxer
comedian
cambod
designers
collaps
farms
measured
computers
##kir
##acc
##abwe
geoff
lover
enclosed
cis
lut
##idal
moham
performers
renown
homosexual
lecturer
pushed
zhu
##iously
115
testament
wilder
digit
documented
mlb
lomb
##jay
##erie
trim
wheat
##aze
pitched
##harmon
escaped
malaysian
phrase
kang
input
##utical
##afa
characteristic
reflect
gathered
rash
tube
vector
##rang
##imo
bibl
suspected
habenaria
retreat
benedict
zimbabwe
tran
boot
arrives
##rahim
dome
##oque
willing
skating
failing
rings
til
aside
##chan
shots
bore
wise
##andro
##atha
exhibit
julia
mammals
##usa
brut
blacks
##hao
eccles
catholics
vand
##active
oriental
dinner
samples
ct
ich
##rated
##elect
coached
exploration
bulld
##iii
cafe
fount
134
fay
promise
macro
harvest
chilean
astronom
celtic
##cz
##uly
##lights
toler
sta
pars
deport
freight
eleph
literacy
observation
paralympics
survivors
ges
hik
heter
##illed
retiring
promised
labels
kenneth
moss
sheet
##okes
##ilding
basil
educator
bread
deputies
praise
abstract
vat
##istle
familiar
jamaica
premiership
gp
qing
##bing
facade
turb
santiago
pulled
tornado
ety
hiv
wwe
##acles
raja
nineteenth
nascar
##inder
##enty
orland
monster
119
millenn
entries
rebel
moses
amphib
empty
fus
##oj
##iw
belle
##ashire
##ompass
lancashire
ludwig
imprisonment
##estershire
pitt
##amy
clients
prove
westminster
townships
slowly
sanctuary
900
gerald
laps
nah
ply
sau
interface
commanding
terrorist
deliber
philosopher
segments
proclaim
literally
##run
toll
##andy
##aping
obama
posthum
miche
##eu
##inth
denis
##borg
rainfall
motorcycle
kann
##insky
specialist
connects
reader
civilians
emerging
fluid
##kop
para
polyt
knox
nationally
breaks
spokes
wednes
alc
sup
retain
armstrong
attacking
sebastian
protagonist
proc
##manuel
programmes
deriv
ballot
payment
councillors
leipzig
luck
##eley
##quer
colored
apoll
contracts
raiders
volunt
protocol
convinced
hiro
nig
phon
authen
denomin
snake
colonies
escort
ibrahim
electronics
##stadt
aest
##cu
##ener
diving
km2
employee
zar
##oleum
epit
controls
##mail
grants
##irect
doug
ferdin
dollars
uganda
broadcasts
predominantly
bhar
kend
pom
##agers
##berger
##ovision
compounds
skel
cultures
argument
lectures
disappoint
etym
##onne
feather
euro
navig
encompass
nj
sized
yes
##lete
postp
zhang
moderate
retrieved
reynolds
eb
nice
##itudes
##apest
milton
133
epid
naming
nadu
ai
canoe
blake
philharmon
exactly
astr
aware
##atra
brill
bohem
viii
negl
monitoring
slovenia
mb
graves
americas
emily
copyr
sussex
rapper
doctorate
demanded
chronicle
feminist
bones
hort
##tes
136
glou
immun
customer
trinidad
dere
sheep
upcoming
fourteen
researcher
flowering
zurich
gt
gop
sik
acceler
simul
prevention
terrorism
tent
vault
##iast
##anmar
ank
##asian
114
trev
doubt
utility
gibson
recruited
auxili
dong
##tains
##inery
distinction
criteria
professionals
torture
allegations
understood
dud
ion
##hey
residing
abilities
brooks
essentially
package
spectrum
##enhagen
confidence
cuts
cdp
diesel
genesis
hes
nintend
##hand
##hra
##bie
##inge
##child
comprises
hak
coral
gunn
sustained
##fol
knee
leslie
headquar
cinemat
nacional
noc
##gent
obsc
moments
physicians
divorce
nintendo
##22
shak
##alez
##ashtra
parking
performer
circular
quarterf
contestants
nikol
explorer
bust
harp
350
wildc
dialect
echo
hul
pam
##kal
enabled
explain
olive
cornell
separation
siblings
oc
##ader
spur
##anti
118
suspension
hypothes
discontinued
faster
pab
greens
finalist
announcement
memories
furniture
rc
##turn
##uke
##orum
##olith
cohen
discovers
davies
##amba
colombian
yuk
##agram
noting
swift
devot
conquest
##umberland
specimens
conspiracy
##sson
##ochem
##ifies
abolition
blu
##azi
householder
identification
1833
transformation
curtis
audiences
ucl
stir
shepher
colleagues
statements
lyon
jaco
phenomen
orlando
##ei
##anor
fraser
mayors
solomon
pastor
slovakia
rushing
advertis
stolen
perceived
##rina
anders
shorter
webb
monk
possess
lesser
consistent
chemist
pist
##enzo
reward
##emann
##season
decree
ups
##market
shelter
homet
pace
##kok
relatives
theoretical
beliefs
mk
linn
estonia
radar
superintend
equity
##zyme
##vae
##rep
##riages
creates
prosper
##rets
notre
taxes
repeatedly
aberde
yuan
seoul
##ishi
remar
provisional
unanimous
bik
variation
odd
twentieth
catalogue
trigger
dale
##ping
linda
##books
myanmar
victories
minimal
wasn
conrad
highways
valle
##ylan
conferences
aspect
pregnant
martinez
asking
unve
##ieri
efficient
interesting
abbre
reflected
ethiopia
kob
##list
eurovision
hopkins
nationwide
targeted
portraits
nursing
dying
rivals
sending
tens
superman
cheng
rodriguez
ist
mw
tyler
##ashes
##umps
##ensional
amounts
explicit
cello
affiliate
bengali
biblical
gad
sg
iso
engr
indo
consec
surprise
mats
stephan
infection
suddenly
chambers
hometown
ufc
##vet
gujar
maintaining
walt
activated
considering
generations
##world
budapest
trustees
neighbouring
##roke
intense
paragu
##ateral
monroe
navigation
verd
cats
della
gav
pamp
tissue
cancel
##aeupithecia
och
arbit
prair
contribute
poles
consens
destination
##iability
salvador
screenwriter
paradise
##ocer
grac
grain
flour
crashed
strings
socorro
ecology
requiring
tasks
suburbs
favourite
lying
chip
fires
outc
cream
gathering
procedures
fcc
nh
##bat
stability
marian
logan
optical
accurate
cere
duck
wur
##olly
atlet
1820
watching
gonzalez
##uru
newfound
##ilda
investors
ruins
richardson
dramat
veloc
gaelic
lil
carved
##ynam
biod
dealing
broncos
submission
maharashtra
mund
##acco
##imon
leh
wei
quarters
landmarks
handle
investigations
harmony
chateau
renowned
copyright
jake
##kers
thurs
itv
comprising
finale
kingston
##boat
investigate
crafts
arcade
distinctive
playwright
manifest
bee
apprent
engage
2024
geology
garner
duration
kenny
theodore
##eo
altar
natal
##iffe
kurt
telecommun
bankruptcy
endangered
rhod
muk
hurling
destroyer
adjust
nicolas
vinyl
wesley
ussr
guidance
##uh
##arr
unt
copenhagen
celebrity
powell
underwent
luxembourg
gov
mask
atp
boom
knows
platinum
suspic
oblig
accommodate
ik
##iley
marcel
chapters
ordained
constantin
algorithm
eating
wart
zool
disabled
meter
kills
romanized
counts
shrub
inquiry
alumin
##rawn
abund
secular
geological
announ
receiver
emil
skull
lighting
fewer
banner
legendary
filmmaker
nou
porn
##gel
marco
newport
##enger
sensitive
lec
##icus
concord
obv
juda
celebrate
cly
sanche
yo
##auc
prehist
##inted
observations
decrease
nurse
curriculum
pag
thames
marble
edit
surve
developers
icon
dancers
revolt
redesign
cres
##isons
situations
executives
strikes
beaten
kc
luk
fever
regent
miner
mineral
stafford
sanchez
aka
ds
lone
niz
armies
malt
actively
espn
1815
ferdinand
gaining
##essa
leather
##illon
scal
thereby
endings
slam
extending
battalions
conversation
aunt
rend
herman
trium
malta
holdings
bip
fare
jas
sank
##pi
booth
glenn
fertil
caes
marshal
rifles
displays
dash
gian
kod
##lar
bypass
relie
providence
louisville
robot
caroline
findings
andrews
permanently
supervis
emphasis
pdf
enzyme
teeth
titan
handling
duet
travelling
bacteria
millennium
nab
slo
subfamily
efficiency
bedford
culmin
blair
portions
independently
cardiff
bradford
reactions
panthers
nicknamed
atomic
toxic
rochester
authentic
##inas
##igious
chu
edgar
consequences
threw
##apa
brent
caliph
faction
rulers
suggesting
precip
recruit
gustav
horizont
##mir
##illance
elabor
expatriates
screening
hms
##rist
mccar
proposals
allmusic
legends
wald
clement
1829
seemed
wednesday
carlo
##atham
##atories
argues
regardless
sacrif
namib
gan
##etics
personally
lessons
andrea
manuscripts
napoleon
inhabited
##unes
suite
##velt
millions
roma
messages
sacrament
##gender
##inia
seized
worn
holmes
commitment
pottery
symbols
relegation
forbes
##bery
disability
worlds
johns
111
emmy
##lining
confirm
bess
##adors
lease
followers
barrier
##engths
midnight
centered
georges
grandmother
1831
magnetic
dubbed
alphab
thermal
surgeon
auxiliary
ix
bru
geneva
metall
crops
prevented
arrive
drawings
riot
vulnerable
##avi
honored
pupp
hayes
trumpet
evaluation
hp
##stead
##ffbb
privately
synonym
ordin
jamie
bbffbb
etymology
ole
inver
##oded
topic
madag
happen
dorothy
reconc
tanzania
surveillance
ez
##rag
overlo
batman
dynamic
algerian
codes
geographical
developer
recognize
brandon
prepare
dul
arche
breath
##oyd
automatically
jacksonville
sailors
ellen
headquartered
##oly
forever
forcing
116
auditor
badmin
interactions
enlar
cic
cay
nm
##onica
##ilion
archer
brings
courth
cataly
madonna
atlas
brighton
renovation
goddess
badminton
punt
rost
vend
carne
artif
releasing
associates
karen
hoff
improving
flooding
hugo
barracks
encounter
antarctic
ling
sag
##atem
ish
coin
##iversity
elector
moreover
capita
convoy
symmet
consultant
treasury
consequently
knockout
mild
rica
##rough
##yll
convert
##estrian
##bern
marina
referee
potentially
divorced
iw
##enary
turt
auburn
kara
tucker
vander
runway
helm
primera
mentions
pretty
diab
eri
hermann
smoke
lineup
humanity
1828
nobility
lobby
yar
##ilder
clara
clothes
##oye
troop
complain
adoption
nath
##len
##lore
##ilo
canyon
accidents
extends
heinrich
rehabil
fk
nose
##gon
##oney
staged
forec
unw
##lett
frankfurt
fairy
coordinator
hipp
rational
##nai
##33
beau
##ipher
magnitude
suburban
superintendent
##jiang
##esta
grab
##hend
holder
bangkok
inaugur
corridor
dish
lj
pf
exha
exterior
roose
footnotes
sanders
missionaries
shifted
spacecraft
huss
pied
wrap
##amation
##onduct
baroque
confused
maternal
dimensional
streaming
consensus
bce
saga
stored
##apo
##arta
manages
eventual
superc
girlfriend
utc
mascul
jeremy
lens
laugh
ske
##aul
##nut
##inki
##irus
##ogg
martha
polyn
armor
varied
rao
entity
munster
##holders
conducting
observatory
lutheran
macedonia
bavaria
mohammed
##oan
##prises
##osystem
##rific
seas
##ifax
##anca
##ylum
##quez
silva
hook
fairly
lance
##zed
deals
##rio
##avian
##beck
discipline
yak
##cane
##heric
clif
embr
batting
verte
particles
claire
fiscal
compensation
firms
joel
attitude
addressed
loved
neighborhoods
philosophical
mell
complement
##otto
cheap
drove
assassination
lebanese
francesco
java
zen
##pin
monarchs
disorders
triangle
lal
lift
##rh
##horn
dayton
practition
foods
demonstration
lesbian
saving
##zel
consent
keys
venus
absent
loves
strategies
janeiro
cater
arctic
streams
halifax
commissioners
##uku
1825
scorer
360
julius
estimates
withdrawn
unfortun
lug
sally
##onte
##icul
onwards
severely
limestone
hosting
concerto
dodgers
brewery
automobile
madagascar
##page
##arin
server
hurt
roosevelt
##rice
##orms
plates
inclusion
juven
matrix
mobil
tables
##chaft
depicting
philharmonic
sink
##itas
altered
auction
##rition
##nu
##nity
##ivo
trails
sofia
belfast
collier
irreg
restore
hardy
bhut
clinic
lecture
irregular
dund
hag
preston
newman
maori
foundations
salem
boris
750
equality
##yd
##hev
proxim
trend
environments
borrow
1810
dynamics
fatal
seriously
tobacco
evangelical
chelsea
##aic
##fb
##isle
heading
deeply
ancestry
winnip
buddhism
rican
zimmer
bride
mohammad
stationed
criticised
##zzle
beneath
merchants
sylv
##osition
feels
floyd
##etto
remembered
krishna
telegraph
hect
nass
ti
arrow
##aea
logic
naples
warrior
analyst
atletico
hank
vow
##wyn
##woman
boarding
absolute
kaw
reid
costume
cylinder
##nings
##rium
wore
airborne
educators
casino
°c
##gang
##days
##erver
colours
wheels
##aneous
institutional
burton
realized
philippe
rhin
trafficking
prussian
hi
##oping
sear
shu
elis
surpass
##neum
1822
neighb
delegation
galaxy
nathan
##gard
##lis
adolf
##uca
imposed
invented
santos
hawaiian
meyer
prostitution
fbi
rak
zamb
whites
##ellar
distant
owns
angola
nato
ernst
workshops
pilgrim
shim
abortion
berm
venezuelan
windsor
latvia
unre
duff
loud
lightning
crowned
acknowledged
newfoundland
revel
unexp
flown
##eve
##otherap
demo
1814
trainer
aleks
taiwanese
lancaster
sinc
##boys
anticip
##ographies
layers
accounting
##millan
braun
winnipeg
cairo
##asis
transgender
glory
explore
batteries
##front
paramount
uruguay
judaism
kul
sard
ald
##ongs
##endron
##ulture
dres
annie
freshwater
doctrine
aberdeen
vc
sega
impression
karnat
typh
skiing
condemned
panc
##xy
##iane
syrac
charleston
fusion
wend
reass
pled
contents
edwin
marking
tactics
nsw
ceremonies
vale
##amine
guided
closest
custody
transformed
climbing
mysterious
configuration
jub
kern
##power
trap
moor
salis
salam
websites
saturn
opposing
slovak
griffith
##35
##ications
##ctica
comprom
silence
promotional
viola
galleries
santo
springfield
interviewed
diploma
patriots
jessica
receptor
zones
##ugh
##hero
amid
williamson
berry
infin
paying
guarant
##rams
##ocar
guatem
governmental
economist
deutsche
fountain
##core
##entry
schl
##ictions
porto
helsinki
cree
hitting
##nick
##jin
##iso
parach
button
mixture
sequences
lynn
chennai
fragment
enlisted
thursday
oy
vie
##gins
##cor
##iae
marion
disl
112
morrison
brigadier
ambassadors
##ulsion
explosion
hano
##leigh
##alla
cluster
antib
panch
particle
hoped
geometry
cognitive
pasha
##ether
##urai
medi
portfol
biographical
humanitarian
sabha
cameroon
tah
##olin
##ectives
enable
##ango
##force
terrain
duchy
1827
##restrial
##employ
##0e
theolog
outs
bowling
flagship
suffolk
treasure
cuis
sophie
biodiversity
##iani
shed
##enny
variet
macdonald
enhanced
prestigious
syracuse
dhar
jah
##sten
##emus
##ifa
schem
solely
deposits
pupils
disappeared
plymouth
derek
velocity
sulf
##fight
##piece
##amas
orphan
hern
maintains
curve
missiles
malcol
synag
expanding
confederation
vish
inland
##ogo
##grave
metab
ecosystem
sociology
rubber
hydrogen
fights
##hf
##eur
##dc
##itious
unified
norton
richards
klein
##etz
##adh
unoff
albany
laf
collector
personalities
planes
acquire
encourage
extraord
fiba
malcolm
fiji
rim
rector
unemploy
##avel
numer
merely
array
holes
mcdonald
##egro
bruno
theorem
lighthouse
fake
dear
drake
telugu
merced
destro
eighteen
dic
mock
##inte
##azar
courage
watched
cubs
dragons
karnataka
presum
authorized
reads
plantation
1826
1824
julie
conjunction
##lay
##anas
##athlon
maid
varies
randy
portsmouth
easter
mog
sene
##zyn
##aram
manning
janet
turks
circulation
rebec
plateau
instructions
czechoslovakia
arte
ley
##aceutical
blast
blank
##chel
papua
specifications
crazy
£1
##sburg
##py
monet
winston
airing
measuring
tac
##iza
genres
monks
supporter
pursued
proceeded
feeding
interpreted
shallow
instructor
powder
lisbon
jorge
hierarch
inaugurated
haj
mouse
##esis
##atum
compat
##qual
impressed
persist
##elsen
devast
observer
striking
manufacture
##kinson
dive
##rand
##hin
##hurst
##eville
silk
ultr
surfaces
discussions
freshman
mongol
antarctica
extraordinary
holl
##atz
reluct
weir
accus
bombardment
leopold
cypriot
##cano
##endra
define
fergus
occurring
decreased
schmid
montenegro
prairie
dylan
tender
##ienne
##rops
plas
prints
carriers
facts
shoulder
nicol
emirates
##elt
loose
valencia
volt
trips
anto
tune
struggled
concentrated
floors
stretch
html
lucky
##oys
##arity
rex
grim
resur
intensity
##erner
premises
circus
##strom
guitarists
tribune
welcome
soprano
bulldogs
##hett
item
##akala
##onde
##group
roberto
tomato
1821
mastering
rotation
trailer
prohibited
bloom
hate
tough
zoo
##mant
##part
##igi
##chus
##uga
angry
clem
responsibilities
unveiled
##houses
##yi
##ск
graz
publish
handled
convey
fault
attraction
pipe
carpenter
innocent
jab
xbox
##eti
chant
##odz
spo
invas
croc
ecole
learns
diagnosis
unexpected
##jev
rejo
eva
##annon
##linary
panels
penetr
treasurer
bundesliga
##lane
asylum
chim
minne
strang
rosen
mandate
abbas
synthesis
coronation
elliott
gale
kem
kolk
wyn
##iens
fract
plural
appre
offense
flute
councils
keen
preparing
kosovo
wagner
vernon
##olithic
pounds
rw
##dan
##jani
##ов
##recht
##itsu
gazette
rivalry
judgment
salisbury
bard
taste
##pit
exchang
depicts
barber
summar
bacon
lifestyle
cherry
reunion
consolidated
propaganda
##post
##irt
##utta
spark
haiti
glacier
muller
collapsed
fool
pard
##xx
##ulations
shark
politically
swamp
##ledo
homeland
collaborative
omaha
baha
advocacy
innovative
mere
pour
vr
##esian
##assic
##oughton
##gren
overw
revived
posit
lunar
reconstruct
oss
rp
rita
za
##hell
frig
tracy
2020s
barnes
operas
agreements
gardner
hawks
kai
picks
##erick
##atro
##utz
permit
baltic
oliv
1817
responses
bolivia
initiatives
consequence
paralympic
rn
trop
accol
ecological
postal
currency
equation
hopes
rainbow
##bird
fond
tues
##lov
scouts
transmit
demolition
collecting
loch
trem
troy
sweep
tasmania
supervision
reptiles
##ativity
basel
servants
##ennes
bark
##ophon
dell
##sted
upgraded
vars
equally
medalist
koh
controversies
triumph
cyn
ned
alto
plum
presc
larvae
##inski
preval
uncon
1775
naked
prohibition
bryant
subdivision
prehistoric
##oot
##cock
##45
##uran
buzz
burke
enterprises
macc
browns
bulk
bassist
folklore
constantly
recreational
forbid
neill
##akk
coch
dece
specified
transfers
activism
verlag
1813
contestant
fn
jing
##idian
##emon
portal
volcan
generate
ruf
1823
vegetation
pharmaceutical
rectang
pocket
##alling
##elles
claus
brom
weigh
assert
theaters
wolver
miz
greene
textile
bombers
falc
gaming
cambodia
ceas
tb
vag
yosh
topped
##urance
sue
##ucci
doctoral
ellip
liam
tension
yemen
##si
##acha
loans
rebounds
stronger
blocked
joshua
bw
mash
raven
##church
acre
repairs
ende
institutes
translator
rosa
##rosion
tuber
correspondence
ucla
nixon
sits
##enstein
##alon
casey
kras
##rosse
requirement
specimen
cement
pomer
##hail
quoted
verb
draws
jesse
proportion
middlesex
phenomenon
minneapolis
##cul
##los
##endon
offs
transpar
uncom
feminine
quarterfinals
##mc
##lav
##orious
stap
##adal
whate
princes
marl
##icester
separately
1758
astronomy
alexandria
fossils
broadcaster
ain
beds
hok
tann
##des
##elo
##iman
##iak
braves
dressed
considers
electro
backst
rounded
mcn
payments
pyram
telecommunications
overwhel
##hot
##ayn
heidel
deceased
apolog
directing
glad
confusion
circles
bicycle
kolkata
pes
##hart
##elong
unif
allocated
##aceous
comparative
deployment
marginal
mechanisms
muscle
carnegie
hollow
tc
##tures
##wen
##70
##agher
##rup
amar
willie
dozen
##otta
trek
irrig
##uctive
weightlif
cuisine
dart
fid
wig
##asium
maiden
##ahu
noel
visa
cooperative
lankan
encountered
prompted
hc
mou
##edo
prc
trace
lasting
accordance
thomson
practiced
lacrosse
guerr
##aton
toledo
clust
provider
melody
bonds
polytechn
dio
dair
pga
wah
##hm
trucks
basement
quit
detachment
storyline
refuses
integral
unclear
jumping
##optera
autobiography
patricia
fog
##gor
##jord
##ilee
monica
attribut
directions
##flies
ulster
rhine
vacant
proclaimed
node
##zan
##acular
##ande
##rip
leak
##ells
##ucts
##ologically
legally
synch
maxwell
abandon
baldwin
bhutan
varieties
ere
gle
pend
##oire
##itated
chains
spotted
##mans
##shore
exhibits
mercy
mohamed
stamps
whatever
##enko
boost
canvas
betty
panzer
graduates
fleming
dubai
advocated
trilogy
masculine
senegal
heidelberg
gains
kv
##ен
##odon
tradem
intr
disagre
fees
blade
transact
johnston
hawk
podcast
slavic
shepherd
mature
dams
cruise
challenger
kerry
perez
dresden
fug
kane
vl
zagre
##unal
prey
protecting
##beat
translations
priority
1806
endorsed
fury
sind
##oline
##stock
##agne
##ako
mald
humph
organizing
mandatory
favorable
granite
occasional
hastings
comprised
zhao
##isy
stabil
deaf
##hne
maya
ballad
averaged
450
##iatus
saxony
##dioc
horizontal
nave
rapp
sf
##imi
seating
##abs
phant
highlights
capabilities
invitation
fragments
laureate
pronounced
icelandic
hassan
vampire
courthouse
mh
##had
##qi
##otten
amalg
subordin
stepped
25th
squadrons
refugee
impressive
nk
evident
expelled
archdioc
magistr
italia
easier
cyber
governorate
knowing
1808
regulatory
kilometres
gos
tide
##iade
##acio
##idy
chrys
exeter
inches
correl
conviction
dias
theatres
homeless
oxid
admission
dunn
cheshire
cameras
lia
nt
taj
xv
perf
formats
121
humor
physically
psy
omn
sacramento
zagreb
gum
poc
riley
yah
frustr
##idea
genoc
confident
peaks
dolphins
##electric
complaints
yi
plug
leicester
twe
counted
##anco
##loo
##flix
##eka
tomas
softball
deterior
distinguish
postponed
##isal
##itely
##ulates
joins
##atti
modest
aviv
garage
negro
partnered
virtually
measurement
kinder
honduras
eclip
bp
dign
##alan
##irts
##igrap
beast
##estan
linux
geneal
##shi
freeman
madras
assembled
contracted
commercially
siber
##worthy
cyclist
roland
mathematician
ef
##imar
hew
##iper
nationals
brock
poz
chef
synopsis
1809
licence
##iciently
conceived
witnesses
kunst
wards
##cestershire
##aye
##onshire
moist
1818
glob
objectives
levy
pavilion
varying
recommendations
chicken
jacobs
##olan
stack
hex
##raf
laud
variab
statues
##appa
diary
accomplished
##hran
crawford
aston
bike
bays
fet
hain
##eling
##aders
isn
evan
governed
tourists
cleared
woodland
1816
nickel
habitats
riots
gymnastics
gymnasium
dawson
explanation
hos
rt
vass
##ilation
##irical
cran
creed
chev
castro
silv
illustrations
vicinity
reinforced
fitzg
medallists
petroleum
ket
lago
pater
yas
##atan
athen
mari
syll
remn
europa
captains
transported
categor
swimmer
jointly
fernandez
diagnosed
lump
##wana
##inos
##aland
##isi
##oki
accompanying
ferrari
advancing
wartime
ia
vick
##arag
seam
edges
barre
propriet
racism
sometime
machinery
spirits
consumers
shells
tackle
eugen
strictly
sketch
walsh
varsity
diana
ler
##kow
##onn
##idan
indirect
subway
##kett
slip
slopes
patch
sixty
settings
##ariat
acceptance
removing
orchestr
cadet
constantinople
artifacts
ding
sne
xin
##the
##zing
wash
spear
desper
proven
barrel
eleg
devils
errors
rowers
badly
quarterly
bombay
bitter
decorations
emigrated
rafael
tragedy
reopened
rebecca
cors
chern
kell
kyr
##asan
##aek
detection
mcm
disputed
poorly
aerosp
dimensions
astronomer
renovated
aggressive
cunning
dixon
kamp
mural
nes
repeal
drives
healthy
##ships
dissolution
elephant
goss
##36
##esia
fruits
##opus
disturb
britt
advised
humanities
balls
atmospheric
highlighted
bian
dion
##nian
##andi
##occ
carb
sheikh
schne
handbook
narrator
consulting
delegate
chronicles
dwar
##imer
kuwa
gravity
tickets
tart
##itative
##ician
alps
churchill
netflix
1801
assignment
latvian
uzbek
dot
wen
isab
fritz
harass
salary
##ycles
strait
sponsor
bols
lc
oro
weld
ally
frames
##este
upset
genome
##elyn
este
anthem
introducing
1798
challenging
hazard
hutch
thrown
abbrevi
aragon
##ritic
teammate
campeon
protector
depictions
asteroid
qualifier
gree
##ng
##icular
##omal
carriage
mega
southampton
factories
##uctions
cyclone
sponsorship
rudolf
facilitate
haleakala
dz
np
nil
##bh
##dor
##avier
cologne
teresa
210
##otti
diff
pastoral
pageant
backs
##izations
locals
harsh
summers
sherman
crucial
redevelop
proximity
drift
##rous
##acing
dew
examin
amen
##bourg
orientation
vatican
vy
##fried
ismail
minds
##places
consideration
eleventh
elderly
tibetan
voluntary
pok
##isse
##rock
twelf
overl
prizes
argue
investments
achieving
gros
substance
dioces
penguin
archdiocese
lb
##held
##arius
anolis
##igs
proud
spat
peg
miners
gerard
mcd
potter
jerome
sculptors
apartments
wireless
malayalam
drainage
mercedes
twelfth
erik
zu
##wers
anx
shiv
acute
disk
revision
darkness
##heimer
feedback
withdrawal
tian
ved
##abo
##ogical
##iban
multim
falcon
screenwriters
pablo
linnaeus
lily
oath
pneum
##enas
canber
appl
extr
humid
sanction
halls
introduce
believing
##ommission
botanical
prosecutor
trevor
kau
lans
##iqu
##isers
thy
thank
##activ
##ikos
finite
monter
mercer
##ischen
disputes
wheeler
griffin
duches
lombard
rode
clare
cald
handic
properly
alfonso
lorenzo
einstein
bs
cir
dru
##uer
##38
anonymous
##stre
##akov
continent
turbo
rockets
bulls
absorbed
aristocr
precipitation
kens
makers
nir
sectors
##heed
##atur
avi
starter
volcano
reserved
flags
inherit
ligue
survivor
campeonato
##esti
lever
##ipur
regina
socio
obit
##onomic
calcutta
wilderness
fiat
andhra
desired
irving
reviewer
sandstone
##zzi
frog
ricky
nrhp
advancement
consciousness
sacrifice
mn
##maker
##uard
##ono
coleman
flam
terrestrial
emi
lois
lineback
kinds
dimension
prosecution
nutrition
sicily
fow
lund
pension
##ayev
timothy
realm
imported
jewel
ivory
inventor
anthropology
alvarez
ecclesiast
canberra
sb
xia
##uana
##iche
als
##abling
##ordination
perception
##chem
performs
privacy
macmillan
1811
ceiling
fuj
physicist
throwing
luxury
libertarian
acclaimed
namibia
portfolio
##amoto
##ersion
##ophor
leigh
shoes
preventing
747
prospect
multipl
penalties
unofficial
##39
##asus
alder
unesco
tonnes
tasked
aerospace
gius
jockey
nl
rises
wives
##prising
crop
valued
speaks
arguing
somalia
questioned
jungle
##osaurus
ub
yours
##vey
##esi
##ostic
georget
1880s
homer
dealt
bounded
certainly
linguistic
submarines
pregnancy
toyota
rahman
variables
arose
hin
##cin
##mor
##ayama
##gee
gramm
##oupe
livest
lateral
crim
communists
openly
loos
midland
verses
hyder
benefic
zion
##atu
chong
pepper
starrs
magical
salon
technological
visitor
sentiment
michelle
accommodation
rendered
mvp
endeav
##48
##entric
stint
##umann
partition
liner
##hips
winchester
quot
##afi
invested
magnet
llc
complications
dens
dances
##hou
##lia
##eding
##enues
##enza
##arium
cong
beats
ars
worcester
marines
buchar
thresh
shortened
circa
baden
update
teenage
nordic
genocide
dimin
miy
rca
zel
##alm
stair
##uni
##unch
spite
outlaw
seasonal
crater
involve
audition
arabian
riverside
whitney
examined
cedar
ingred
bucharest
het
##aled
##asm
universiade
outcome
consul
highlands
augustus
240
templ
snail
watts
cornel
comparable
andreas
##otypes
placement
loyalty
tuesday
##rians
##ffcc
weiss
amber
benz
krak
occupational
dollar
excessive
scattered
transactions
rd
apoc
longtime
curator
detention
everyday
taxi
vicar
solidarity
dirty
ccffcc
vikings
wreck
dwell
wi
##eco
hert
dob
membrane
entities
##pora
solic
thoughts
certification
##took
maurit
brilliant
hypothesis
##kie
##ст
##rea
##ellers
##antes
##ledon
presenting
erl
chaired
certifications
agrees
cannab
fitness
bombs
##keepers
giuse
gore
lent
nz
rm
##gir
##yar
theres
##leen
##riz
bless
##onsc
##ysc
naturally
##aniel
donations
civilization
sunk
terminology
ashley
immigrant
spectators
pleasure
mccarthy
accolades
aria
binary
ls
##hof
##urities
##thood
chocol
##oso
shank
disgu
armoured
collision
fundra
drown
clarence
cruiser
wikip
astronomical
bury
cage
##osi
unic
##rique
induced
blaz
calvin
romans
walks
angela
strongest
mikhail
shirt
##otherapy
ile
kus
omar
rays
##rance
##orus
##aris
##otive
chatt
bees
traces
eden
guidel
slope
frozen
##kirk
parsons
##jee
reagan
##through
##ancing
emissions
turkic
1805
alberto
demonstrate
##antha
gaza
ethiopian
cia
jiang
mish
sect
vaugh
wade
##zie
##bys
##jun
##otr
##oves
##pta
malik
hampton
improv
1793
roller
kidney
infrared
sleeping
guidelines
piz
##ouk
##oding
nationalism
220
equations
predicted
1804
cooking
quantity
frost
hanging
semifinal
paraguay
qb
##ographed
superhero
successive
##cliffe
nonet
casc
chapman
documentation
criminals
opinions
slovenian
tunisia
dudley
unfortunately
dana
unrel
spiders
overcome
modes
##tenham
modeling
lifted
3000
ronnie
hellen
giuseppe
awa
caves
mum
##hir
##ombo
##arte
maneu
##omez
##forest
providers
critically
josef
coven
boyfriend
beside
retrosp
dans
##eaux
##bn
##anum
stats
##akr
roh
butt
antagon
arguments
predators
unders
koz
1794
embarked
automotive
knocked
wickets
cbc
dn
kub
##disc
##omial
truly
clive
##derland
peruv
emin
contrary
raids
funk
percy
ibm
lambert
sidney
azerbaijani
mentor
alexandra
dorsal
##wings
##uting
##ologic
brows
listening
##horse
sitcom
magnific
storey
rescued
##hausen
hymn
jenkins
pbs
tiny
##wo
adequ
incor
##aws
overth
charitable
explored
urged
emeritus
1803
preceding
clyde
rehabilitation
nonetheless
pell
##how
##roft
reiss
shiva
##eyer
phyl
linds
##annah
promising
glam
mothers
1819
investigated
adviser
enrollment
posthumously
ferguson
##hai
##yst
stag
##odendron
leuc
bred
estimate
curling
branded
celeb
segunda
maple
proceeds
ecclesiastical
wikipedia
##bard
noticed
carmel
pref
remake
considerably
lightweight
##werp
abbot
continuously
##iciary
professionally
inscriptions
ultra
##garten
sutton
cottage
biz
wimb
##omena
tric
clash
companions
avant
skip
conven
donna
citation
doubled
searching
saxon
coloured
##hardt
ideology
fitzgerald
gat
ner
wong
##athi
##awar
creatures
1890s
tomor
controller
##comed
chaos
gastropods
doming
fles
##pace
##rove
##actyl
underlying
caled
propeller
boxes
brigades
1792
mickey
seventeen
##aum
##jor
##lements
pras
solve
antwerp
differential
cyt
hampson
amazing
cultivation
apostolic
exempt
sterling
canceled
ips
qatar
zach
##99
##itte
projected
##avo
feast
nowrap
vijay
1790
shooters
expectations
ae
eh
gs
mord
pemb
sided
theft
outlets
interrog
germ
##flow
smallest
bonn
illustrator
shaft
complicated
greeks
ely
##zburg
##dar
##eded
##emi
prose
##ounters
reliable
depends
metac
divide
stead
empower
navar
homest
planted
availability
flowing
linguistics
incomplete
hm
tusc
##nic
##upp
##──
##eles
##into
extant
respected
judiciary
violation
reservation
conservatives
boyd
dispos
mccl
morton
##eros
##ometer
##acao
stur
deity
usc
underwater
backup
downs
info
prophet
consistently
##zzo
cecil
uci
##ра
leis
leased
interrupted
themed
landown
ave
postseason
dense
marketed
cruel
necessarily
correspondent
emotion
pleasant
undertaken
caucasus
wisdom
naw
##xton
##onen
rebrand
##imony
intens
decommission
guadal
remin
organize
obtaining
peaceful
abdullah
##otypic
barton
bulletin
apollo
obvious
lau
##alli
spelling
##antan
marriages
scales
##ibald
johan
fuller
encounters
screened
likes
baghd
exposition
playwrights
remarkable
##yth
##kson
clause
##ueb
intensive
agnes
decis
seeks
careers
melan
planets
##ogenic
synagogue
lindsay
diaz
gomez
pg
tn
sting
rehe
##andan
##avers
leone
decoration
thrust
cret
emble
christchurch
burma
devi
coventry
microsc
jeffrey
aided
##yen
##arms
anole
##idays
clou
elm
papal
censorship
puts
breakthrough
opted
1780
segreg
oversee
hansen
pearson
exercises
lanes
schemes
tomorrow
bant
##uti
abram
flies
chero
christine
##aja
welcomed
hyderabad
##dia
##iland
une
incred
disco
##ilde
lined
cheese
wilts
investigating
##agonal
contempor
staying
bahrain
momentum
bfc
io
nost
resided
tehran
##ahi
module
suppress
irene
philosophers
kyiv
eliminate
pioneers
monasteries
##ilingual
##birds
pharmac
guatemala
eclipse
cherokee
cigar
fing
jh
pter
sach
ump
##cat
##yu
stam
alma
lean
adher
warwick
122
##loe
volks
lowe
1802
1795
pierce
hannah
synchron
jays
##bred
healing
brady
##izers
warned
loaded
lineage
motif
sentences
flem
bells
renewable
##conn
prussia
dac
eun
haus
nue
thess
pratt
compass
scots
meth
invention
skiers
funny
inspection
savage
buckingham
geoffrey
fis
##park
trunk
antis
physi
striker
1791
calculated
measurements
narrowly
monarchy
terrace
vanderb
bermuda
mits
reper
##igma
acids
crane
extinction
skate
sonata
##osphere
insect
1799
reflects
exhaust
georgetown
hij
zheng
enz
##ipel
willow
titans
commands
constituent
utilized
watershed
ancestors
##walk
excavations
forbidden
gou
##bone
conway
##apor
schw
gloria
##obe
commentator
owing
redesignated
alphabet
pie
wishes
yacht
##1st
stoke
##tham
##umen
invaded
statute
##gyz
fathers
hostile
combining
kingdoms
##ascular
osaka
embedd
rouge
cure
sends
aless
##rips
shri
blessed
mets
vols
30th
storms
##covered
cowboys
conquered
cey
gd
kopp
latt
tad
##emin
frater
bye
##oche
##quel
guides
impr
strain
classroom
identifying
dirt
fisheries
##enzie
reprinted
stereo
tulsa
falcons
kyrgyz
saves
witt
##adian
chop
conform
##opic
arth
joey
##ultural
defines
explaining
hitch
probability
butterflies
gifts
mozamb
boul
##iary
##hara
##wara
stuff
trends
disqual
willis
crest
limerick
narc
happens
rolls
exceptional
determination
wonderful
surrendered
gujarat
jagu
nd
xavier
##tu
##34
ink
##elage
stip
alert
brach
evol
builder
console
modifications
anger
secretly
ambul
controlling
accidentally
marquis
viscount
enlarged
monetary
rectangular
sings
wak
yus
##nis
##itational
static
chau
##aby
##ods
brave
newer
##print
financing
corporations
dispat
dedication
rotten
##wski
##escope
accuracy
interference
auditorium
polytechnic
hatch
lill
ust
##oft
##icides
##omar
##lean
alley
##opters
shire
##ogene
contrad
venet
sharon
contributor
ranger
hydra
constantine
insurg
phillies
ravens
tributaries
fungi
rin
tuc
##asth
##aden
arches
crom
clube
autonomy
bihar
marty
routledge
viewing
##iliation
threatening
continuity
addresses
brewing
viking
commodore
vanderbilt
dix
euc
ease
ome
##nels
##66
sper
shab
assume
countess
undergo
entom
marker
attractive
1776
alej
decorative
##uttle
pianists
tumor
forgotten
lid
nipp
pays
riz
wn
##ska
##hus
##ean
##onal
##enov
##adia
unh
serp
commissions
crust
telescope
steady
##plane
burden
burlington
unlik
chemicals
nobody
joyce
celebrit
fum
gong
lime
tko
##fold
##alom
##emia
chord
chass
byr
tromb
schwar
lawn
midlands
biochem
##affe
##parts
constituted
##aldo
conservatory
bowie
1807
celebrations
resistant
gibbs
moroccan
juvenile
elisabeth
iber
deh
##landers
relax
applying
albion
##aird
condens
charted
hawkins
helicopters
enthusias
lahore
elaborate
jill
kins
leth
sich
##77
##owe
chil
serbs
els
coordination
disabilities
warrant
metric
berth
dealer
surveys
boliv
fixtures
preceded
aurora
enacted
schneider
mapping
yen
##atas
##cepts
intact
surprising
##hya
showc
routine
verde
generating
darwin
laboratories
liked
embry
crews
bottle
aerod
perpetr
dairy
obituary
jel
kov
lys
taw
##now
stab
salmon
mobility
floods
adaptations
supposedly
reverend
consecrated
announces
hectares
cannabis
lyr
nw
nina
tate
tensions
##hop
arlington
reson
betray
doz
russians
libya
chaplain
dropping
tonight
scholarly
peruvian
bia
fas
gin
hai
nos
##yg
##mu
##ilus
fres
overtime
additions
villain
magdal
summon
photographers
sharks
rapids
antoine
wimbledon
kak
##vic
##vant
##phones
directory
waterloo
infected
davidson
logistics
juliet
demonstrations
consortium
duchess
kah
##pps
eli
guam
armored
burst
broader
reformation
please
ventures
precurs
matthews
witnessed
schmidt
dess
viz
wax
##dorf
unst
acet
contacts
##orno
cobb
polbot
buying
insuff
composite
catholicism
paths
aquatic
mongolia
enhance
aesthetic
poul
rides
straw
stutt
##abl
shy
brat
notion
accent
revers
marching
imaging
gloss
blackburn
thirds
castles
golds
bigger
prominence
sailor
protesters
patriotic
mackenzie
ghanaian
##natural
threshold
leisure
unlikely
kass
nay
pud
werner
stain
##cho
neat
trapped
shog
agenda
sworn
batted
tracking
hyde
gravel
macedonian
memoirs
bates
kag
tear
wien
android
winters
specification
capability
132
skaters
myers
likewise
holt
corners
1783
barbados
affiliation
garnered
rhododendron
celebrities
cerv
hog
henn
hoy
##will
reject
lein
conting
schwe
adds
breakdown
integrity
plaque
wanderers
outcomes
baghdad
gb
rup
inception
enabling
shannon
knife
remind
advances
halt
motorway
advocates
struggles
bavarian
recommendation
cw
lv
tf
tooth
##olley
##tera
spelled
intim
roch
systematic
countryside
casa
torres
##baum
bullets
escal
ivy
1789
intelligent
sophom
unnamed
##onscious
sto
chol
enorm
carey
doo
professors
antio
##obic
affecting
caution
coupled
sexuality
tobago
laurel
discharge
arbitr
bould
dd
hap
hick
##vs
##90
##arf
sued
resolved
peac
phases
mali
mugh
sunny
discoveries
reflecting
phillip
laurence
bacterial
mascot
minerals
livestock
hiding
naj
tug
##cence
##opot
depr
##yss
##ynt
cheer
presenters
lima
talented
analys
mortality
loaned
evacuated
folded
tomatoes
chocolate
dining
woo
##uine
##aren
##chair
enlight
parth
regards
asset
develops
email
pauline
vera
acquaint
effectiveness
swept
nurses
lepid
practitioners
appreci
hiatus
##eches
##ouns
ads
herr
twist
offshore
amus
airways
slot
archived
realizes
testimony
penny
giul
hemp
polymer
infinite
volcanic
dental
hq
hague
rous
yoga
łodz
##uya
inequ
alias
##iffer
herm
carm
carmen
##mph
parody
bois
engaging
flames
midd
paolo
flee
esk
savings
wolfgang
subtropical
skilled
proportional
peasant
metabol
metacritic
bolog
katherine
##oved
adri
amino
publishes
bare
creature
horm
religions
pitchers
sexually
struggling
faithful
cnn
buccane
persuaded
gandhi
remarks
tud
neal
##anned
requests
camel
panic
samoa
analyt
terminated
reinst
answers
parachute
irrigation
jum
##uen
##aring
inning
##uddin
sphere
finest
diver
brewer
justices
christie
possessed
daniels
conventions
reproduction
ornith
implications
jubilee
coss
lus
una
##ignon
schu
##ribe
colleague
organisms
storyt
holders
choices
1796
lacked
coordinates
surgical
aces
bn
bing
kes
ses
vfl
##kas
##orian
##abul
mayer
accredited
methyl
archipel
revealing
legitimate
abbreviated
kav
nim
sizes
##athe
##isible
##elic
filter
decomp
barang
calder
settling
inflamm
##ijuana
babyl
clayton
##foot
resolve
knoxville
electorate
destroying
reminisc
kut
pau
chir
##lude
weber
1700
singular
impair
22nd
bergen
directorate
violations
aerona
mesa
ignored
vitamin
uruguayan
transmitter
##court
##eit
##heart
aging
expend
detected
organizational
speeds
webster
packers
songwriting
amph
benny
psychiatric
multiplayer
nett
tatt
##pot
##arc
##anson
securities
monsters
amanda
workplaces
smugg
steff
capturing
generic
battlefield
stephens
keeps
dissert
ryu
baku
excluded
attributes
trademark
stuttgart
dia
gog
hector
pasc
pueb
##base
##enaries
stom
stems
##ieg
afterward
drunk
##rible
instant
smoking
weston
sonic
equil
robust
hoping
precise
kurdish
gibral
orbital
feld
kant
wagon
schwart
bloc
##loid
swall
descended
slide
##bye
busy
walked
destinations
descendant
tubes
troubles
cunningham
kuwait
incorrect
tire
wir
##aid
##ße
beard
sew
##iker
accred
inval
##undai
##club
ballads
complexity
installations
transmitted
parameters
exploring
perspectives
dorset
chromos
hail
##inen
beaches
##abh
1797
##azzo
nicole
clarinet
thinks
deeper
##fil
##jud
##37
##urd
stained
yearly
monotypic
medley
royals
detain
viral
burnt
optional
addressing
fuji
fears
seemingly
limitations
guru
ceremonial
myself
keeper
presumably
##gage
##nar
##jana
##uria
arbor
##oreg
peers
securing
flint
universidad
capitals
calm
##yna
helena
replied
hyundai
hammond
sunset
roses
rubin
portrayal
konst
patriot
wildcats
##zhen
##kind
##amon
##unted
cannes
nationale
substr
1600
walton
versa
trades
50th
ramon
gateway
jenny
risks
sketches
tends
##caster
##tec
##jon
##itone
toil
##acul
##ushi
mons
doyle
combine
insisted
darna
tallest
virtue
tongue
hobart
##ipei
valentine
hiking
guarantee
shane
sergio
weaver
decay
nationality
undertook
austro
competitor
donation
inflation
sno
fails
digest
tribunal
batch
##oulos
frederic
landscapes
gambling
exploitation
peasants
benson
lumber
pact
pix
tl
##yards
##with
##itate
##agara
##arya
newark
screw
reloc
joa
mush
impacts
##bris
militants
badge
waived
suspect
taipei
magnus
bolton
recruiting
molecules
##rified
displac
caesar
crimson
hogan
lengths
pest
sikh
##eut
##anu
##ums
deserv
##aires
##itta
simmons
midwest
eleanor
informal
##ophys
sunderland
##raints
buddy
celebrating
lacking
##osaurs
complaint
satellites
cocaine
pupil
uniforms
cumberland
hare
ks
wc
watt
##asaki
suk
##ikk
assad
starb
##atorium
shipyard
eighteenth
comeback
sainte
pseudonym
valleys
phylogen
cory
erys
hord
##db
##isie
##itory
marched
elena
albeit
##forms
##eee
judy
##iatric
lovers
mercenaries
nielsen
normandy
incorporating
mathematicians
hernandez
paw
piers
pistol
rpm
##55
##zman
shap
shout
##ogram
bres
wein
flame
titular
23rd
similarities
hardcore
isolation
belarusian
avoided
crescent
dab
lup
ping
rama
wounds
##iu
##eason
##fred
##arts
##isans
##adic
##terdam
adele
disasters
regulated
upgrade
steal
24th
prophe
mccart
destroyers
pathway
pipeline
stalin
##oceras
homestead
ayr
flanders
rope
##vik
##rem
##aci
##ptic
##fordshire
franca
paperback
demanding
mutations
marcos
migrated
trauma
explosive
sovereignty
bracket
posterior
sophomore
pens
wage
##witz
##olor
unrest
##orte
##geon
worse
##ansen
hasan
preseason
brooke
terra
curves
tenants
karachi
expressway
carlton
sediment
appealed
teachings
excluding
johannesburg
remnants
gibraltar
sansk
##phe
conception
seine
marse
reporters
developmental
detained
factions
masses
5000
breakfast
nazis
hunters
mansfield
prolific
fuk
zomb
##orio
##esy
##alus
##stral
fresco
herc
polls
expired
whenever
augusta
curved
voter
freeway
secretariat
destiny
musicals
jules
kicked
astronaut
aleksand
erie
##200
##anks
incarn
amn
27th
candy
occupy
miracle
##building
compatible
archipelago
lom
##eer
##las
##usive
##ipes
scroll
regency
upstream
barrow
brotherhood
cameo
premise
insert
##iffs
mozart
kannada
lafay
sanskrit
spit
polling
reversed
burk
qualities
garland
bordered
scenic
hartford
disciplines
scandin
##unciation
nervous
wiltshire
bologna
wished
##adio
thur
onc
##iston
chung
trout
birch
seventy
bowman
ashton
wester
pamph
zimmerman
cake
ratt
##qa
bez
matte
##shine
derbys
ethan
quarry
armenians
residences
benton
typhoon
mozambique
chassis
lafayette
gim
ieee
vint
yong
##anus
##olar
##etcher
fork
##oting
cone
recyc
##anka
augustine
courty
anywhere
couldn
matching
urdu
##heads
orchestral
oversaw
conceptual
spreading
buddha
laurent
emotions
shirley
evacuation
explicitly
kart
vang
chun
dei
##onda
##ikon
genetics
metals
seth
waterfall
travis
employers
domains
determining
randall
computational
mistress
incorporates
lenin
elliot
wizard
yukon
derbyshire
mug
mih
##makers
##wu
##anov
##arina
##aler
##elman
forts
##oped
neoc
allison
outlet
outline
mayo
homepage
cups
cardiac
rotterdam
quantities
mistake
viktor
patterson
philanthropist
pyramid
clusters
alejandro
ahl
eternal
fff
##orah
##esville
forget
##igm
alk
##ulative
projection
##iphe
shor
hered
deficit
##ungen
dukes
detect
260
damages
constitute
fortified
robbery
behavioral
basilica
coul
gec
gyp
hanc
hau
nih
yd
schooling
barker
barrett
loft
derives
targeting
stopping
carnival
krakow
gus
kemp
wich
##44
stance
shorts
charities
##engers
everybody
semic
oceania
jesuit
transcription
thornton
hierarchy
mhz
fang
jensen
pang
vista
##xide
##itivity
##acaf
goose
usb
agn
expenses
submit
##loaded
1910s
##unders
showcase
##erville
continuation
priory
supermarket
1870s
photographic
jackie
codex
ancestor
lexington
triangular
forecast
clifford
rehears
omega
lots
sage
tz
ws
xii
##pc
##etus
chatham
##illi
shrew
carac
peripher
default
imam
concacaf
bordeaux
minorities
discussing
reflection
ribbon
expertise
uncommon
emblem
rue
tears
##━━
asym
abel
dover
emmanuel
brett
protective
infect
libre
baba
strauss
symbolic
lauren
teenager
floating
tramway
corpus
mariners
gould
yel
##mud
##etric
shapes
##acker
colts
agr
schaf
##grass
secrets
##liner
raion
debates
##sha
loses
firefight
odisha
reunited
gloucester
inheritance
ceylon
fencing
##itism
##icity
##utu
atop
neolithic
itf
brenn
defining
##encers
originating
promises
preview
positioned
##bahn
punch
hunger
molly
tsar
leinster
eul
feng
nhs
oman
pog
##daughter
sey
##odor
trich
bram
##eves
##itsch
hubert
loving
besie
wanting
rushed
podium
gilles
vaccine
fiber
lighter
tamb
xen
##inks
##org
##rob
206
##sein
brac
drac
attained
constable
labr
confess
bronx
koch
clearing
1781
##guard
imagery
collectively
magistrate
rack
tes
##wind
##stop
##istrict
dex
sek
submer
designing
deadly
beatles
warehouse
concurr
lr
tailed
##zek
##rez
##odies
spare
indef
elong
bluff
linking
instances
collar
muj
academia
26th
banker
hof
unconscious
1777
encouraging
evolutionary
nitrogen
cove
##rone
##athetic
##emar
##unas
##alled
##ichte
##rae
retaining
damasc
karab
participant
liberals
sioux
columnist
phenomena
wolves
residency
switching
commemorate
botanist
anarchist
annexed
ej
fals
pv
##rate
##adas
lept
barth
raff
convince
totally
appointments
sunshine
dominion
counterpart
lorrain
delivering
russo
perpet
czechoslovak
mcgill
homosexuality
unemployment
paternal
flemish
erysiphe
dae
sj
##fest
##lair
stuck
clo
resides
carson
##ibi
soils
corrupt
replica
greenville
garrett
trustee
preparatory
archaeologists
tendency
ozone
##ontinental
epidemic
stephanie
phantom
ruther
##fin
stun
bean
specially
foundry
##flu
finalists
irre
choosing
pursuing
dimit
displaced
rituals
sacked
staffordshire
dundee
pilgrimage
dump
pagan
tips
zub
##ер
##ecute
##iste
##cephal
##ksen
##emberg
fletcher
##azir
restart
snap
torah
shoe
forestry
reasonable
ensuring
suggestion
bloody
complained
substantially
cultivated
##children
supervisor
overwhelming
equilib
hire
kham
##bath
##advant
framed
##iances
shale
rox
persecution
nonpro
palae
madh
suns
galway
preparations
succeeding
ruby
emergence
contacted
reproductive
cope
erosion
rall
xu
##46
##aret
choke
athe
##ende
souls
drone
airs
##eps
##obia
angelo
happiness
suffrage
rajasth
##iseries
diamonds
jamaican
##normal
poznan
loosely
ais
bally
##bold
clip
adul
publicity
breton
biom
selective
contractor
guardians
communicate
stockton
shooter
cartridge
jonas
organs
motorsport
jakarta
tubercul
jug
muc
rer
##wi
spher
endow
simulation
pressed
camden
##arios
sharma
toul
romeo
comedians
geometric
cesar
zambia
linebacker
sichuan
dozens
##abulary
eman
##long
##ioned
##aper
spor
trolley
shipped
dishes
##former
##wei
##fta
termed
carefully
histories
radius
gluc
supernatural
230
francisc
vocational
costumes
stevenson
compliance
partnerships
imagination
hanover
sanctioned
sans
##adan
##arton
##mere
gob
phones
deciding
miniseries
gubern
lara
periodical
snakes
gallagher
lemon
precision
licensing
lagos
neighbourhoods
starbucks
dm
dl
pim
##lier
##100
##atisf
beings
##soon
abnormal
drago
descriptions
slate
restr
approaching
specializing
realistic
congressman
complexes
functioning
collaborations
wheelchair
pitching
fischer
embedded
bests
kcl
mourn
siv
tyne
##gill
##rays
##onga
greco
apache
##hyn
emerson
repaired
burgess
motivated
kindergarten
spatial
insufficient
displacement
pn
tand
##bons
##kk
arb
ener
##akar
##actic
##hyd
141
valve
accordingly
##verse
tunnels
drops
nicarag
ampl
repeat
instructed
enzym
hbo
ngu
##75
inactiv
##alach
shat
clad
sheets
##uala
edith
amir
expense
teammates
lax
operative
infections
shipw
##mington
administrators
racer
financially
carlisle
biden
receptions
filmmakers
igor
cv
hicks
lening
mitch
yoko
##eh
##orp
ashes
heats
beaver
colise
applies
noir
televised
miranda
tunes
synthesizer
##elihood
kashmir
hesse
nok
zee
##bral
##idis
##usz
seah
compuls
norwich
constellation
aligned
##ropy
castell
facto
praising
attorneys
##anteed
guaranteed
moldova
meadow
relieved
ingredients
covenant
leningrad
lich
##pers
##oran
##alore
##thon
debris
buchan
esther
alba
thirteenth
detached
##hael
cellular
ambitious
progressed
nucleus
gorge
piper
shawn
negotiated
mistaken
amusement
buccaneers
hancock
pis
ramb
##zt
##bas
##kenny
inade
##entin
stella
probe
##ryn
relied
barriers
##spring
classrooms
mohan
proto
##ometric
judoka
snails
hawth
darker
##ourier
sensor
diplomats
capsule
martyrs
dwarf
bots
gior
nis
tally
zah
##amar
sten
byron
beech
whitt
discl
freely
satan
1782
memorials
catalan
nutri
beverly
dissertation
schwartz
inadequ
##imeter
traced
##sover
##ounted
perennial
timing
monopol
##identified
##hama
eras
petty
accepting
massey
adjo
derivative
damascus
gubernatorial
diane
gag
rows
rfc
tau
anast
heating
mare
crush
berkshire
documentaries
1788
cartoons
cooling
jennings
inventory
panchay
dmit
pou
wages
##his
##function
##uo
##ilan
stup
beef
##araj
paler
catches
##gaard
garde
astros
savannah
rabbit
catalina
assignments
##ynamic
diaspora
labrador
cus
gc
gis
pach
##gil
##yder
##ayr
##ands
ort
goa
teamed
somewhere
skyl
statut
##neath
judith
goodman
650
horns
landsl
porch
sustainability
spawn
decisive
lorraine
gund
sill
##pie
##arat
##inga
##akis
shaf
partisan
cob
phyll
noah
holidays
primitive
privat
treatments
hoch
smithson
ethical
husayn
flyers
accomplishments
filling
admiralty
##ophyll
fuselage
stirling
enormous
2d
cull
ero
qa
tik
##oise
anterior
reapp
##owing
excer
##izable
teaches
rely
edison
underneath
communal
turin
peterson
racec
synod
lengthy
launching
horizon
anatomy
lonely
scrapped
gentleman
aure
xiii
##yang
andres
##ayy
##utely
tricks
hash
decent
depiction
surpr
camping
##appy
namesake
conflu
iconic
paleont
liquor
havana
skeleton
surpassed
compromise
byrne
cac
pors
pike
rai
rbi
##ibus
schul
disadvant
##ups
##otting
goalkeepers
translators
automated
mighty
mortar
defendant
therapeut
##hawks
tyrone
inferior
antisem
surprised
fon
suther
wigan
##mb
##omans
statewide
quinn
portable
delays
irv
restruct
qualifications
macar
fortifications
bangalore
1900s
preference
euph
thoroughbred
abundant
turtle
bong
dend
dove
pose
pett
uae
##leased
heather
conject
whip
spanning
abe
mein
distances
alignment
announcing
##fields
nightclub
sands
nominal
worthy
lunch
swords
prostitutes
fulfill
dramatists
polynomial
aks
bits
rented
wey
##was
##oco
spike
clips
disrupt
blamed
basal
##olls
villagers
midway
##afe
premium
substances
resembles
sdss
algorithms
yaz
##irmed
##herty
incons
peaking
boiler
declining
mafia
invisible
profits
patents
islander
discourse
urb
luft
favored
leonardo
scenario
diabetes
bie
cri
kp
##jet
##owo
##agin
##mented
contamin
overnight
capped
##onyms
speeches
haute
320
hurdles
paired
nuns
orchid
##kopf
nigel
accusations
flesh
statutory
bum
css
nod
riga
##gars
##arth
shuttle
grig
mao
mai
apex
matric
stras
christina
merge
antenna
blackberry
##retion
##ippers
reviewing
hotsp
huang
ordn
commentators
pulse
lincolnshire
##efeated
sophia
advantages
amphibians
fowler
baz
cuc
nodes
sark
zinc
##hab
##mitt
##nius
seym
##avirus
clair
edmond
##hampton
angles
replay
explores
combines
urs
employer
saras
1779
bureauc
pioneering
pirate
traits
inscribed
accreditation
dap
kri
##uling
sej
seaw
##ogie
flot
netball
balkan
sandra
honoured
zhong
deliberately
luna
sacks
ineff
##osity
shine
afro
adoles
##angen
##achim
chartered
##evic
collectors
differs
skysc
breach
##tti
economists
paula
stripped
undefeated
##ihad
singaporean
ladder
supervised
mlas
vegetables
unreleased
multimedia
bax
tav
##iem
##arp
##itr
wholes
warming
implies
delight
castile
firearms
chairperson
potato
raphael
winged
jacqu
1784
kyoto
sheridan
owens
remixes
reefs
voltage
maw
vet
##green
##bage
##lio
##amous
##istically
choral
genius
locked
rememb
downstream
talents
encoded
spiral
savoy
bosnian
dramas
alcoh
intentions
ceramic
reorganized
rashid
neighbors
nonprofit
dus
gdp
khor
##cio
##32
##86
##oum
##urus
alam
engel
crab
correction
europeans
treating
honest
greenwood
verbal
homage
dealers
observe
beatrice
calcium
cleaning
bangladeshi
deposit
mollusk
nerve
eduardo
aman
gull
mound
ville
##iidae
inmates
##opath
##abar
##odont
remarked
passive
activation
mustang
occupying
##iros
fantastic
katrina
therm
dwelling
retrospective
##opotam
a1
ghett
mice
sok
##hat
##ан
##enes
##acan
##ulic
adhes
allocation
##awks
finishes
distract
drought
terti
sanctions
judo
gases
kilkenny
##iformes
sinking
ipswich
submerged
sutherland
skyscrap
sis
wrec
zip
##alk
##oub
forens
adr
regained
assessed
overhead
impe
archibald
introduces
dominance
feared
wyatt
paved
synthetic
hurricanes
mammoth
retreated
subscription
legitim
invasive
rajasthan
bt
cumb
dumb
jup
rb
unpre
seals
truss
##osta
carrie
152
euros
freel
##burger
promotes
##islav
elevator
counterparts
conversations
olivier
equilibrium
nure
##thel
##asco
##olome
##etically
##isticated
degrad
##onds
perkins
amended
##ologie
subjected
airplay
##indy
eponymous
jeal
steering
criter
socialism
duel
insist
horace
immort
kaiser
catalonia
cassette
weakness
assumption
reperto
haf
nie
##nica
##igny
##actory
guan
granddaughter
insign
encry
illumin
winger
1778
resemble
aaa
hereditary
tertiary
icc
naut
tina
vaud
ying
##due
##heid
##ayana
##ikov
smok
jeanne
muz
caste
infilt
insight
citrus
treatise
managerial
packaging
kimber
randolph
concentrations
pancre
clouds
coliseum
dt
lilly
chis
##anto
accepts
incent
belize
matth
stranger
steele
goodbye
survives
screens
goalscor
deadline
consumed
coordinated
emphasized
advertisements
redevelopment
pizza
reissued
nippon
rans
reissue
chow
##dera
barg
modification
natives
270
mckin
robb
##yrus
1787
prominently
labeled
lamar
expeditions
wolfe
conquer
mollus
nominees
##keeping
sinclair
pneumonia
decommissioned
dexter
aper
bly
iter
##alism
proton
##ogether
elvis
parap
attribution
armour
simone
antig
institut
225
privy
sams
satirical
akadem
oaks
signaling
eaten
purely
excavation
satisfied
deutsch
hercules
piv
rna
tended
##path
##esley
##rosc
##olla
##atty
131
discs
catcher
networking
altogether
reigning
syndicated
1660
spokesperson
nathaniel
kop
lach
ranc
tup
wille
##good
##rak
##47
##idas
neu
peel
schro
##evich
martins
balk
structured
halfway
goalt
declare
shelley
vilnius
df
kall
motto
nish
tops
##oway
seated
neon
clap
grind
adel
assim
genuine
juvent
strath
mustafa
candidacy
punct
investigative
financed
productivity
laying
clearance
incorporate
lindsey
privilege
plasma
ordnance
loun
mia
##idia
fringe
plaster
enables
oricon
##quis
schles
##awan
monoc
busch
malawi
divisional
secretaries
testified
transferring
rosario
tablet
1715
pools
bethle
tractor
rebranded
mccartney
hue
##yre
anand
##ioni
isles
marijuana
appalach
guess
##loys
generator
accession
wrestle
sufficiently
entrants
throat
fierce
verdict
amalgam
cretaceous
ambulance
amnesty
fert
##yas
##lift
##4th
##inqu
exiled
levi
prat
prone
traction
1750
##ieres
communism
bias
superst
broadly
tombs
rodney
alexandre
exempl
tragic
flexible
puppet
uzbekistan
stomach
bau
kuala
sq
tj
vu
wb
anita
##icultural
##angi
baseman
metz
##henko
nowad
meridian
##plus
confisc
traders
promotions
hostage
housem
cao
shoots
hui
huff
demonstrating
comparing
sponsors
awak
gavin
wurtt
sylvia
toulouse
bans
eco
mok
sights
##fax
##etal
##lywood
##chia
##imeters
##ounce
##rika
colchester
##raid
interred
instagram
##enches
corinth
##ulla
batters
successes
burm
equestrian
racehorse
expressing
mccorm
1786
syndicate
zhou
laurie
marxist
denominations
caldwell
adequate
seymour
jae
kiel
mitt
##zow
##mberg
##ου
##atile
##icher
##omic
plague
arise
##ikes
blame
speculation
transaction
crem
header
competes
tempo
affection
realize
lowell
cornish
occupies
osborne
lucia
tasman
mackay
prolong
precursor
courtyard
confluence
nowadays
mls
nach
ting
##mare
##uity
##eres
##ivism
suited
marvin
coeff
boo
asserted
himal
remod
constr
constraints
legislators
padres
lotus
niagara
panther
sultanate
declaring
motorsports
meadows
assuming
krasn
dioxide
anxiety
handicap
disposal
tuberculosis
repertoire
bethlehem
ios
raced
sino
tus
##49
##ин
##uters
##ulo
##opia
unidentified
desk
offence
overturn
##ilyn
barely
baritone
matched
stark
helmet
physiology
immune
commercials
bhag
principality
owl
umbre
throws
dhaka
chandler
kapoor
rhetor
kik
##dock
##inho
##icola
ons
##otechn
##ulam
whale
shade
##ieder
genoa
emile
lawson
reduces
deborah
productive
julio
alternatively
illustration
flooded
ascent
fascist
imprint
vintage
jealous
foul
hairs
oph
pius
pinn
zap
##bee
##isen
##sta
##acies
unaware
seiz
##ifolia
##ogues
reside
centennial
regg
balloon
lyce
bowen
investigators
springer
esper
pedag
vacation
ssr
sophisticated
scouting
caucus
unanimously
aluminum
maneuver
cromwell
fidel
paz
wazir
##inness
##esque
##alp
##acs
chie
whistle
seab
schen
manch
intel
musee
chargers
##even
emm
moose
radial
protoc
28th
1850s
veronica
##unting
puzzle
1763
gonna
renault
farewell
reconstructed
brittany
fencers
giro
jong
##rise
##anium
##stones
205
alike
unin
plaint
##izu
dispar
drinks
underway
revenues
progression
landlord
destruct
dismant
rigid
subordinate
xiv
##frey
shores
hermit
roz
counting
##week
collects
loading
raul
balanced
taliban
travers
individually
squads
suffix
archaeologist
chamberlain
receptors
miniature
duplic
excavated
moody
avoiding
bmw
revelation
bai
##bet
##jak
##heon
##atl
ante
thumb
##emaker
##iplinary
marino
reck
herz
boil
electrom
borne
##iera
quinc
turnout
hamlets
eighty
victorious
plantations
synth
escapes
occurrence
nichols
inauguration
thermod
grossed
answered
sparks
listeners
hymns
gesch
positively
wurttemberg
kou
rath
##zone
##isely
clown
notorious
##angan
metam
barack
armament
demographic
sixteenth
furious
derry
chairs
macau
mixt
harder
olivia
observers
messenger
##ytes
reactor
meteorological
vigil
humphrey
wichita
dracula
karabakh
agh
mama
##gg
##utsc
##ppo
buk
whereby
merry
investor
madame
etat
##ischer
ruiz
bowls
cardi
doris
pedestrian
kenyan
orioles
##eddie
golfers
violinist
wicked
encompasses
catalyst
rejoined
biss
lama
osh
##rc
##vre
brab
##ruz
weed
outsk
##ologue
##raph
remaster
slim
##plant
##shmi
##apeake
beginnings
purchasing
merchand
yeh
styled
pseudo
renewal
seeded
salvation
reprise
chronology
aluminium
reluctant
kost
nana
ria
tt
zak
##wat
inlet
##urian
##emason
beir
enric
repet
polym
bash
laus
saul
142
##erne
loire
cyrus
damaging
liberia
olig
ensuing
eyed
concluding
sieg
rebuild
lizard
phrases
innocence
numerical
rwanda
collo
##irez
pert
overt
noon
impl
daytime
ida
canadians
everett
royce
unionist
cyril
luigi
wilmington
punches
atlant
1760
chesapeake
definitions
coordinate
hubbard
intentional
honda
affordable
indefin
dich
mould
##sbury
##uum
##alu
##acons
##osia
trench
shame
##ighton
##oller
prejud
histoire
##rests
smile
gerry
petro
launches
acquiring
ministries
logging
odds
discusses
cinemas
cycles
affiliates
renovations
acquisitions
brutal
blacksmith
natalie
lyrical
jed
niece
seller
##oes
##yk
##65
alain
##owitz
##uld
##avar
spans
scripts
parana
weig
interception
1200
surreal
##ossa
passport
bremen
postgraduate
specialty
voj
snyder
vener
cemeter
experiencing
dwight
fundraising
vanguard
outskirts
hess
mesh
pending
##lop
##88
##inished
isabel
##aghan
whis
##asted
joao
basque
transp
##inde
parkway
queer
ruin
sabbath
steelers
allegian
ethnicity
enforced
grossing
bilateral
mammal
cortex
sealed
gloucestershire
cemeteries
foll
ily
kip
tant
##odus
ork
troupe
shear
butcher
northampton
demise
##ronts
##plays
commando
sevens
31st
browne
discovering
payne
emerge
negotiate
wingspan
wicket
surgeons
bubble
serpent
rutherford
bd
fy
gug
ked
rage
tm
wad
yon
##ozo
##rically
##haven
##uil
##eroy
beacon
##opoulos
brend
compare
overc
malaria
reflex
talbot
racist
averaging
taxation
safely
okin
permits
regulate
granada
pushing
wakefield
strengthened
glypt
borrowed
harassment
venetian
detainees
joaquin
hib
kb
posed
sous
deities
arid
##quit
phu
norris
##itters
starr
majesty
extensions
1860s
mormon
karls
peterborough
interval
admits
accomplish
impacted
physicists
utilizing
concludes
kerr
pharmacy
prompting
peerage
smithsonian
daly
iuc
kud
tara
conus
shun
shake
##angana
##oken
blend
##icker
harness
deton
processor
viewer
fortun
bowler
ventura
diplomacy
anticipated
lattice
strasbourg
kj
kand
mard
sque
uv
wemb
xvi
andes
##omatic
envelop
##aked
evelyn
charm
harlem
archie
salle
handful
confession
informs
##inkle
naturalist
predator
darling
ottomans
strikeouts
unfinished
zeit
ricardo
scratch
confrontation
mgm
enlighten
cag
lips
nile
stav
stade
chit
##ifier
##iping
grat
##raz
intimate
##ikawa
mazz
guys
provost
cron
gertr
belmont
numbering
breeds
stealing
defeats
faisal
recognizes
darren
reasoning
jurassic
railroads
correctly
##escu
amendments
napoleonic
crossover
eminent
trombone
mughal
konstant
dahl
nwa
rf
sass
##nagar
##omac
stub
##emer
ching
##ulator
graf
##endorf
commuter
boise
##fff
norms
nationalists
exports
alban
northumberland
endurance
harriet
avon
moff
patr
posting
directorial
limb
pointing
lowry
newslet
conductors
suspects
bolt
sherwood
somali
sundays
##agnetic
cadets
weakened
cordoba
crusade
brasil
assassinated
lennon
bohemia
bahaʼ
giles
jol
sog
##nock
##urbed
isot
heated
newsc
offspring
locks
attain
retains
quin
capp
terrible
receivers
conclus
employs
##afar
greenwich
engineered
violated
pune
honorable
ramirez
tavern
saxophon
mesopotam
nakam
enclos
alterations
gifted
antiquity
steffy
racecourse
lacks
wess
yok
##gc
##ethyl
##otus
chitt
hep
comet
clashes
compart
playground
reclaim
##qua
##lander
coh
151
##etsk
iris
sunni
khar
behaviors
sympathetic
utilities
aquatics
cancellation
coffin
seventeenth
devotion
confirmation
fingers
hk
penc
##iated
##wang
##ел
##ocon
##odi
neural
shrops
##ellus
##ellular
afb
afraid
centenary
attested
##brates
280
erich
possesses
##ukh
wears
marathi
brasile
chlorine
bohemian
prevalent
rappers
lagoon
yourself
jupiter
shropshire
damp
gable
yv
##oil
##rud
##kovic
##wicks
##itat
##urgy
##oter
itunes
energ
enrique
##icho
##ials
abrupt
##ailing
universite
guern
treason
turf
refusing
denotes
townsend
heroic
pulp
fixture
ernie
ancestral
rebuilding
blooming
baptiste
rendering
reyes
breathing
theologian
burmese
dai
ngo
tx
##lund
##puts
##31
inability
##olent
##chool
freddie
wholly
prisons
tres
colt
tehs
##ibo
joh
mint
maver
1710
undergoing
fourteenth
##byc
ordering
chet
oppose
libyan
takeover
modeled
gaul
subsid
apparatus
reinforc
spells
uncertainty
recruitment
wendy
marseille
quincy
veto
wavel
##nier
##alin
##owell
chill
##agg
aden
registry
borneo
deplet
api
juniors
ecoreg
booker
tempt
berger
assisting
holden
branding
migrants
perfectly
mollusc
sodium
turbine
epithet
ordinance
thessalon
##rade
##listed
##ilin
##acia
onset
chloe
outre
slogan
captained
woody
expressions
broadcasters
drummond
amplif
crowds
##isphere
pietro
dictators
liaison
browser
domingo
irvine
cah
cds
daim
gond
liang
##pec
##atore
##asim
clans
resorts
incar
referenced
coined
##intosh
selections
connell
billed
affects
karate
putnam
##adox
exceptions
pipes
soundtracks
meyrick
wagons
orchard
kidnapped
apprentice
caliphate
overlooking
hoffman
##0e6
unrelated
neoclass
umbrella
dried
fence
lough
tidal
wies
wta
##iad
##dong
##42
alonso
chances
chips
marilyn
intro
coy
wex
saunders
viad
##araja
confined
275
panor
##enthal
obsol
mandal
rolled
converts
giac
updates
catchment
lionel
unusually
##urgical
hedge
nikolai
reconciliation
vaughan
bureaucr
alcoholic
##hoe
##mac
##dh
##atal
##itian
acron
append
wehr
weimar
monaco
electrons
statesman
northam
creators
majors
##etsu
academie
##shaw
refusal
inserted
practicing
contempl
somal
lifelong
oversight
bahamas
ozar
eaton
disappearance
earthquakes
crosby
triggered
colliery
tajik
rats
uber
zag
##cery
##fm
##wagen
##ор
##asso
##reys
fron
##agger
##illion
spont
spray
shia
grape
resume
becker
monograph
attitudes
revue
sims
valer
skater
italians
voor
conferred
40th
failures
##atiya
rotating
precisely
implementing
defendants
jumped
pulling
phosphate
nassau
invalid
endowment
inadequate
ghetto
aperture
reinforcements
cess
korn
kru
£5
##qing
##ии
alison
levin
colombo
offences
##forth
drill
soo
soy
reddish
##unga
solving
possessions
insult
memorable
arias
paddy
stripes
patronage
prosperity
wembley
aide
cain
fs
rower
##uating
##doc
tosh
##utant
shay
##quist
parag
regin
suppression
demons
##boo
donovan
potomac
screenplays
essence
thread
otis
interpretations
planetary
cocon
heinz
eccentric
suzuki
siberia
desperate
peggy
kensington
adjoining
incarcer
80s
cfl
hust
hello
tiss
unification
compression
##igne
blanc
overha
emission
##flower
archiv
differently
100th
needing
luz
choi
oswald
sensors
sahara
coronavirus
inequality
enlightenment
auf
b0e
gye
nog
rale
##kowski
##64
##ataeupithecia
##iferous
click
##uco
blond
presently
##brough
labs
primetime
vein
petrol
haunted
mosaic
lester
nicola
##wright
rumors
molecule
shadows
yankee
oscill
bentley
pillars
amphibious
##mantle
hertfordshire
compulsory
porsche
b0e0e6
aero
cine
ego
fg
kits
kron
nen
soto
vad
yuri
##lich
##das
##itud
toys
hee
##allo
arrests
comply
##quest
regret
medina
hume
fremantle
readily
lua
##lessly
banana
##aurus
blocking
microbi
bollywood
550
sensitivity
marquess
extraction
wizards
michele
suspicion
nuremberg
cale
cindy
dread
fart
mph
mla
nell
pots
##inated
##ethe
outlined
presumed
defl
215
rivera
postwar
vega
kmart
verac
torch
poetic
groove
acceptable
akh
happening
mayoral
1770
kirby
llan
explorers
##reciation
nineteen
pengu
frigate
cease
db
iq
keller
pug
##nn
##lal
##imited
printer
##ifera
aft
notation
timor
joachim
##ugbot
subgen
metap
doom
##ype
organist
##bride
grandchildren
platoon
ordination
viceroy
dramatically
baptism
container
dodge
golfer
cinematography
lehigh
qbugbot
ffffff
nicaragua
beirut
jian
miel
tiles
##gem
##rates
##dog
##km
##storm
##itha
deacon
intrig
relates
paradox
linden
buch
maybe
presided
maus
divinity
telenov
passages
##ungs
greenhouse
processed
procession
campaigned
strips
##prints
contributors
bahn
liberalism
sampling
jamal
monumental
enforce
cornelius
prefix
nguyen
macarthur
jp
kry
kavan
rij
ragh
tapes
##lat
##lance
##ded
##kies
inev
##imal
deform
##estro
##asting
brush
brune
bravo
usher
guill
livingston
socially
respir
petrov
ruined
textbook
middleweight
brandenburg
logical
charlton
1774
eliza
recovering
bridget
traum
feminism
absolutely
apprentices
psyched
boulder
fertile
##wickshire
thessaloniki
penguins
bae
yad
##lı
##95
##ecd
##eche
##ulent
unite
plata
graff
newc
elias
musa
assam
bla
grouped
beloved
representations
technically
societe
palomar
mcdon
photographed
alexis
daisy
adjusted
congregations
cylind
zoom
morphology
choreography
inconsist
boll
taek
##whe
unse
##estown
##apant
sein
abort
outright
warb
ears
persia
britann
entertaining
micha
realism
cyan
watches
colonization
borg
ambig
regimental
undis
accompany
cyclones
spectacular
sergei
thickness
rhythmic
troubled
privileges
baxter
bauer
vog
##ook
##eers
##eus
##iona
##entions
staging
musik
howe
communion
swin
profound
slower
biographer
holstein
captive
reviewers
identities
focal
oceans
kelley
aiming
consultation
shields
subscrib
tunisian
monkeys
discharged
##omorphic
simulcast
bruins
hutchinson
overthrow
buchanan
reggae
a2
aq
ery
hiber
kt
pia
zem
##cot
##arine
##icious
##leading
##odied
lea
##see
committing
##ensk
secession
mae
charging
##hesis
angus
##vex
militant
fielding
issuing
injection
arranger
falk
aspir
diagnostic
subdivided
confronted
weird
isabella
mauritius
infectious
erotic
dice
teng
tung
vince
##tail
##lake
##jas
##85
##ар
##enton
##olini
stairs
alton
##opo
wharf
deutsc
##assed
usl
2025
workforce
##loch
modules
parkinson
256
etienne
texans
backgrounds
identifies
fifteenth
suscept
capitalism
constructing
katie
gamma
habsburg
conscience
shocked
##american
psychiatry
guangzhou
claudia
advertisement
globally
protectorate
kish
niss
pits
rite
##tan
##nas
##atown
##omat
plc
aren
##arded
##aston
finances
muss
blades
engined
quay
metad
belly
##link
##coe
curse
landforms
##bruck
##retto
doncaster
judged
29th
circuits
hamm
ethel
##peg
robbie
##author
boyer
psychologist
murderer
mortgage
corresponds
rudolph
expeditionary
teenagers
entrepreneurs
reverted
predecessors
gentlemen
piedmont
wrapped
tudor
enzymes
jade
##gos
##macht
stellar
thrips
asb
chak
heil
recapt
ada
canary
phi
laos
slaughter
##media
litigation
cyst
310
shootout
elders
vacancy
campuses
aliens
accidental
exclusion
climbed
motivation
##apuram
aik
fbb
mens
siding
##oids
##olulu
alvin
##thor
##ounded
teatro
percept
cane
feeds
megan
volta
radioactive
##vester
embarr
converting
kris
pah
yin
##eper
##96
##onc
##oris
##ayo
##agawa
shining
monastic
laund
operatic
slalom
maggie
##bras
shortage
critique
litter
##umba
argu
##cedented
exciting
oilers
dissent
klaus
hemisphere
welch
##umbered
deposited
yamag
scrub
eisenh
##ynamics
dignity
examinations
##actylus
caledonia
unprecedented
tach
##iastic
##fan
##nemus
stokes
forrest
fry
shep
##ensburg
retract
smash
barons
doi
##psons
solitary
honolulu
instituted
killers
commenting
minded
portraying
dismissal
kathleen
shifting
accumulated
comfortable
analyses
therapeutic
flotilla
obsolete
bise
hanna
##cup
heal
##ianus
##igham
bran
mara
playback
relate
flip
quentin
slender
archde
historia
islanders
discour
##yla
##rafted
torre
watkins
cutt
probable
abbott
##uxe
rodgers
cubic
internally
explosives
lockheed
reservoirs
cerambyc
##oscience
supers
vishnu
clemson
rpg
rufus
bwf
prasad
fresno
gai
ppp
pesh
poker
##won
##ır
##elas
##uno
bray
playable
bobs
meal
saar
crete
pressing
killings
keel
void
melissa
gallant
citadel
galicia
temperate
nazar
vacuum
dialects
rutgers
##patrick
cisco
marlborough
erlangen
concurrently
cote
eos
js
jain
kow
nate
##fal
##zys
##wondo
prak
##ogi
firstly
##anski
ella
relocation
parv
parole
rover
edo
upheld
norse
##ancies
lars
suppressed
idi
patrons
nowhere
christoph
blackpool
squir
needle
robots
birthplace
mountainous
dominic
essendon
adopting
pulitzer
celest
margins
swansea
manifesto
incredible
asymmet
protocols
okinawa
gud
seng
yol
##gone
##sal
##dn
##72
##ulin
shing
##oglu
scher
##ondiss
schult
filmfare
outfit
drilling
defens
myths
excited
waik
blockade
soloist
dora
1772
##ochond
gangs
shenzhen
comprise
checking
amenities
ioann
bung
nons
pk
rach
xl
##gp
##7th
##icacy
ston
stiff
##irable
spun
##uban
cola
twil
fined
creativity
concession
arrondiss
debts
higgins
madness
popularly
lowland
arabs
approximate
darts
mutation
precious
shelby
kitty
optimal
subcomm
daddy
bieber
hens
kale
m2
npr
rund
tp
##cip
##uber
##js
##olation
thief
##ogens
allah
cooke
boer
warwickshire
amin
crum
geograph
##undy
telep
eurasian
evergreen
##parents
##uko
olga
excurs
baum
packet
bedroom
dinosaur
concentrate
hazel
chandra
prestige
cosmic
graft
suzanne
abundance
ecosystems
pembroke
jaguars
allegiance
dose
ducks
fij
null
nils
##gt
##making
##bles
##icnemus
washed
plenty
##itya
shre
appell
implied
simpsons
extrad
munitions
rockies
faust
viable
investigator
stadiums
1785
sacrific
algae
decreasing
transitional
algebraic
interceptions
suspicious
shankar
stainless
palermo
waziristan
guernsey
dare
doping
oster
##aan
##lau
##asu
thi
thie
alz
##chin
nept
##ogly
##enden
locate
##enco
careful
diverg
profiles
oldham
bios
silicon
considerations
refr
erd
samurai
rupert
employing
methodology
pediatric
immigrated
examine
algiers
tipper
persistent
forensic
cody
dill
gers
kaj
mch
nair
##zd
##mand
##mart
##omus
neville
##ogaster
##ansky
##onson
runoff
greenland
chiefly
heavier
ambush
undrafted
tsun
lottery
crystall
absorption
intercontinental
cerebral
beneficial
fraternity
disqualified
seahawks
botswana
dau
eup
nau
upt
vip
yach
##aun
##try
##vy
ants
##entes
##amination
alman
whist
arrows
sparked
##angor
assyr
flats
ammon
mait
wouldn
builders
adverse
restoring
halted
latitude
everywhere
refuse
proposes
recognizing
cartel
crimea
##hrer
sympath
bottles
botany
dickens
retailers
campsicnemus
jakob
judgement
dowager
transparency
solicitor
lounge
raleigh
##apanteles
cerambycidae
subcommitte
dah
ode
sina
zan
##gre
rejection
203
uncovered
##herst
leb
amor
howell
demet
organism
facial
##trak
splend
shelf
proceeding
velvet
examining
##0006
spokesman
zoolog
##jevo
categorized
dwellings
schwarz
summoned
reinstated
lass
nus
##eger
##fires
##atism
stunt
##lew
befri
leiden
centro
sonny
markings
uranium
eliminating
granting
bags
fluor
strengthening
aesthet
twilight
jard
rites
rift
wadi
##jing
##ivka
forested
fraz
platt
gron
incur
incoming
reliability
appreciation
outpost
albu
addiction
redem
portrays
##berto
texture
colonists
kramer
medication
hearings
necessity
dalton
resembling
##rophys
exceeded
deportivo
ankle
reminiscent
outreach
cet
mab
sart
##rine
##bag
##wear
chh
elig
apr
surin
deluxe
##obil
similarity
soviets
miriam
applicable
cannons
sabot
preserving
cruisers
instrumentation
bathurst
guerrilla
lumpur
magnificent
unhappy
degradation
lausanne
glyptapanteles
gma
gala
jang
lath
quran
tetr
vita
##oza
inactive
conan
prost
nex
shang
deskt
feas
##grav
regain
ames
metaph
janata
##boats
advers
justified
waterford
superb
palatin
royalty
economically
refres
erin
textil
contractors
ranged
utrecht
antony
charlott
nichol
imagine
chancel
nursery
commemorative
reelection
lauder
segregation
northampt
emanuel
fia
fior
joke
nast
##vd
##enade
##adar
reilly
##otal
##osus
suits
intake
desmond
karim
futur
bonif
ensl
hindus
##ogenesis
nobleman
rhodesia
intercepted
prayers
steadily
dispatched
colloqu
eisenhower
bilingual
cern
ged
oasis
##kill
tod
atf
##uns
contests
##amps
amherst
aval
avengers
epa
anymore
protested
glaz
solved
##rode
romanesque
catast
weekends
ruff
fleeing
axe
hypn
ideological
culminated
neighbours
proprietary
newsletter
neoclassical
bella
ett
fda
ili
kicks
lament
wai
zw
##jav
##eleration
##eting
forem
##chio
beams
##about
abol
monot
amc
guinness
sai
juice
myrt
##hani
biographies
##appropri
accordion
##kaido
mcgu
characterised
ministerial
wilco
hussein
##roads
frequencies
rabbis
1761
meantime
ghosts
embrace
willem
balkans
brendan
bourn
hj
qi
tere
##pack
##hee
##aney
##arie
##lein
beaum
arv
brus
bricks
shet
relics
airplane
annals
menu
headmaster
vald
entropy
pries
steals
sala
salzburg
tottenham
deny
promoter
##uela
##echt
figur
domen
dunes
482
danube
oceanic
hydr
slovene
pioneered
habits
scrut
ausp
##querque
hussain
exchanged
goldsmith
francaise
palatinate
fitting
uh
##fell
##mos
##leys
onward
convex
sermon
schon
epip
cheek
bien
captivity
petit
frankie
entirety
cube
sympos
siem
shareholders
dynamite
intersections
ceramics
tolerance
hulk
hydraulic
gecko
semiconduct
brennan
chieft
iucn
bisexual
duss
fou
iro
oj
tired
##ridae
##hre
##yam
##bil
##vili
fran
##ectic
brake
inclus
##ffe
expo
recorder
gert
##look
##hydr
germanic
waterfront
visions
squares
samar
501
gunther
espana
tarn
coupe
lifes
1759
innovations
deposition
cousins
theodor
pillar
trenton
impeachment
juventus
cue
dib
ditch
rental
samb
tess
##edience
forte
unchang
##illary
##ovsk
clut
parc
overd
consulate
speculated
skirm
##chet
mora
specials
announcer
markers
talked
##hiro
harding
puzz
odys
crimean
gaa
1707
mistakes
nrl
punjabi
1800s
choreographer
disappointed
cinematographer
##akrish
energet
gaut
hiring
mister
nets
##pus
##elier
##ulia
##gev
##ibar
finch
minus
wines
merrill
departing
norte
turbul
berk
##garh
sunrise
haul
33rd
34th
pleaded
picking
vacated
1768
khalid
lennox
gutier
immunity
maltese
staple
jewelry
criterion
patrols
tipperary
northamptonshire
70s
mersey
rau
##cal
##card
##alle
anz
stressed
##idine
##ellia
grun
##assi
aba
teens
deficiency
barcl
signatures
freud
specialised
camille
librarian
berliner
1754
accurately
liberties
digitally
pomeranian
confidential
contingent
sewage
emancip
aph
bucks
kung
rother
xiao
##rama
##dington
##vard
##enb
##arum
##alie
##iton
##owicz
##assa
##ikan
minors
broker
##ementioned
dividing
westward
ska
merging
mori
infring
limiting
flores
sammy
1840s
##banks
illusion
lymph
contributes
indication
mitochond
definitely
dickinson
anchored
proclamation
concurrent
tensor
chevrol
germain
barangay
matthias
tehsil
wehrmacht
priesthood
hilton
vort
vitt
wab
##bud
##78
##ик
##elines
##achers
stony
fright
byd
plots
hisp
##uded
adler
herod
eliot
usd
assumes
warr
expose
1650
barney
ideals
##erta
skier
wiley
lydia
translates
ambient
travelers
333
medicinal
##glomer
entrusted
volunteered
gregg
tallinn
tango
spinning
sergey
databases
evaluate
prosecutors
cliffs
obstacles
daytona
appalachian
somaliland
respiratory
psychedelic
symposium
apt
boc
bingham
houghton
lakers
vhs
##51
##43
##elope
beaux
aruba
##sohn
adolph
pep
##aille
outrage
airst
defenses
##unde
##onti
originates
valerie
thiruv
##brian
commandant
denise
##married
offerings
observing
bombings
lyricist
umayy
heirs
cockpit
kidnapping
melodies
bizar
##otechnology
f1
kars
vaz
wight
##tw
##ayashi
execute
truman
conson
smyr
##encl
slug
##mins
ballots
huber
domes
jacket
bafta
pedest
metropolis
grizz
kamal
sells
transcend
jurisdictions
subdivisions
entrepreneurship
sparta
qualifiers
theresa
enthusiasm
unstable
prolonged
albuquerque
gutierrez
90s
fife
ij
lava
mest
nyc
pts
wm
##orse
toe
##ecki
##ulg
exotic
spines
centred
schiz
##enska
maud
interpre
bela
##undi
##iewicz
1400
corv
password
sanford
socialists
confronts
tracked
selangor
bali
premature
olaf
shotgun
aziz
accounted
rainy
1773
unlimited
weighted
wwf
otago
unfair
celt
hydroelectric
graveyard
##ilisi
peculi
miscell
obscure
obligations
unwilling
fiddle
diocesan
inactivated
reginald
efl
fishes
kard
vod
##gau
##raged
##uve
##ол
##ος
##icles
toss
##emont
caret
##achal
joanna
syed
guilt
proving
depress
quotes
modelling
steiner
##hanouk
antip
daven
morse
museo
venom
scorers
padma
confederacy
scarlet
temporal
consolidation
climax
mckay
baja
unnecess
javier
tbilisi
eligibility
bere
gom
lust
lending
mx
paus
##zin
##stairs
209
##igue
atoms
whor
##illac
##ovce
scler
##ignant
incon
polyp
mono
meditation
exported
landings
##uller
##owska
readings
fallout
turkmen
stronghold
foreigners
babies
packed
displaying
sihanouk
shelters
narrated
ridges
sigma
intentionally
quintet
crocod
arbitrary
chromosome
firefighters
gertrude
taekwondo
h2
jap
kis
mole
obo
##elet
##tsky
prud
afor
##raj
caric
bloss
subgroup
deported
212
occident
debated
diagram
benin
ulrich
acquitted
mirrors
touched
tao
abduct
jurist
dynasties
encourages
subdistrict
disciplinary
autobiographical
redskins
reelected
shivaji
lombardy
bers
gj
hoc
jihad
lbs
ostr
vogue
wii
xuan
##croft
##kat
##stom
##oscop
unav
triv
playhouse
usaf
boots
##awak
barns
curry
##insk
##ported
resting
moran
convict
infants
woodward
wilkinson
lyons
##writer
calcio
vicente
nobles
buckley
evaluated
satisfy
ornament
nottinghamshire
posthumous
procure
denomination
besieged
ghar
ld
nand
vuel
yere
##5th
##waters
alicia
##opathy
##umar
carc
##ibal
repos
boone
pollin
scho
minh
monitors
depths
swind
iihf
technic
goldberg
turret
rockef
purdue
petals
libretto
combinations
haver
boycott
dispersed
fearing
saddle
##points
inverte
syllable
hellenic
weighed
subscribers
fah
hov
jans
kast
lublin
tigr
##hills
##kha
##stall
##urp
##acey
##thal
neumann
##ipa
##ouss
commiss
alloy
##weed
##ahon
revis
croix
posters
castillo
statutes
moreno
mca
snout
##ijk
farmland
surveyed
mechanic
dissatisf
sensory
questioning
hunts
banning
proposition
porcel
mystic
bamboo
prevalence
repealed
staircase
stupid
merchandise
subcommittee
textiles
bree
kuk
nuts
rains
##hay
##hound
##muth
##note
##vide
##edin
asi
##umer
worry
warnings
monoch
novella
johnstone
longitud
helene
steph
grandparents
equatorial
henan
taxonomic
36th
collaborators
440
mandarin
tanaka
customary
fungus
theologians
conjecture
850
dante
ea
liability
rae
vos
##cd
##orth
##rown
tha
##irs
##emouth
congest
grum
##eyn
outfielder
meta
curs
curated
academies
differing
burd
290
tenant
woodlands
melt
costello
campaigning
oxide
raped
fairfax
tamar
naomi
ghaz
conditioning
rossi
terrorists
pavel
theorists
recruits
picnic
dysdera
maldives
kyrgyzstan
lethal
tissues
arguably
rockefeller
cite
dp
faw
taf
##iq
##eneration
##leod
mangal
parma
joze
blanche
workplace
interdisc
##upa
wherein
gerhard
##loads
everton
humorous
olympia
propulsion
bala
cites
##ushima
scorp
darlington
mirza
ramsey
alternating
emperors
twenty20
kuz
otter
rudy
analyzed
glacial
intellectuals
bourbon
annexation
gopal
announce
transparent
bland
cary
fiance
gadd
kof
pomp
tires
##geme
##omyc
##reich
forc
chiang
exits
scan
distribute
acceleration
provence
calv
midst
titus
prevents
myr
##odeon
blackwell
visibility
##closed
morley
matchday
coastline
bulb
chooses
admired
bernhard
taft
##khov
aleppo
gmbh
lantern
tortured
wetlands
simplified
feudal
derivatives
gujarati
dioceses
biał
intimid
burkina
aforementioned
eury
loth
wł
##blad
frau
deed
ors
##qui
sheld
repatri
##iku
backl
realizing
denounced
jewell
frontal
masterpiece
baton
escorted
liege
luca
bonnie
attracting
abdel
carpet
harmful
sulfur
dionys
bantam
gdansk
freelance
rhetoric
gour
lh
lipp
vere
##oit
##bott
##oug
##ouch
##ento
##ivorous
##ithm
##opolis
##ellan
worm
##avez
##isson
brothel
milano
rails
##shot
235
selo
totals
crossings
murals
sentin
avery
hahn
josephine
surveyor
masks
49ers
reflections
1766
subset
rusk
1745
dressing
coding
anatom
##ught
kellogg
brunei
laundry
yerevan
##mie
##press
##enheim
##igal
##imation
enjo
##icants
boyle
##rite
php
##uges
servers
gupta
##ietta
##hora
##bei
cerro
utter
##straße
installment
andrei
stretching
undertake
resurrection
elegant
koppen
aeronaut
incarnation
ozarba
undisclosed
fult
gaps
hats
pork
qian
woll
zoe
sticks
##ulata
seaf
ench
orator
##arde
braw
##ondheim
##ritt
preacher
flatt
nora
norma
profitable
bij
natur
burt
donors
possibilities
wilkes
olimp
futures
gasoline
migrant
brewers
ravi
subtle
yields
cypriots
culminating
devastated
fumble
faso
luftw
metamorph
desktop
cen
dit
eure
pint
sos
sock
semb
##oja
##vier
##pet
##wy
##eras
##armed
##itations
stard
ont
forster
##iras
208
##usha
unsp
leah
##ogh
##ppers
adobe
perimeter
canals
161
instantly
##tenberg
##henburg
specialists
palat
variously
generators
ferries
astrophys
functionality
##zzy
##ridges
owed
scarborough
incorporation
mantle
woj
reorganization
resolutions
vineyard
stylized
hokkaido
c2
hl
kild
yesh
£2
##comb
stays
##avy
shik
carab
guido
educate
##class
burger
affirm
devised
commissioning
tense
punished
occupations
inns
aztec
suggestions
mobutu
tonga
chalk
unchanged
dane
lille
lola
yid
##combe
##mia
##6th
##ал
anest
204
207
whal
##mental
##asta
sheer
prelude
flux
##phalia
rematch
barred
surplus
autism
harps
##inck
passer
##oppel
##adores
sabah
1762
nagar
tyson
sidd
preferences
franchises
ribs
sapph
hodg
batsman
jasper
nickelodeon
contemporaries
buckinghamshire
tucson
antioch
caracas
shipwrec
vaudeville
nicholson
eton
lumin
##dler
##anj
##anova
##olit
##mani
reply
##achments
basically
upright
amtrak
directive
backd
larsen
signalling
opener
persona
moj
obe
mosques
grocery
ratified
1755
baths
hanged
1727
motorcycles
persuade
aggression
fertility
weightlifting
amalgamated
dictatorship
porcelain
faz
joc
noun
sins
##oides
##rze
stric
chaud
relies
foil
amg
expulsion
wills
backwards
professorship
obli
specializes
firearm
ballard
executions
collaborator
demonstrates
emigration
barrister
resemblance
sharply
hirsch
crushed
cpu
unpubl
orchids
stranded
nocturn
turtles
barrels
ao
gps
lact
mace
tying
vom
##grove
##houn
##hang
##tc
##fighter
##icio
##oue
##stor
##adu
##lewood
unopp
seism
brace
abdom
italics
mcfar
settler
taluk
dutton
violating
##islava
carolyn
##ushu
corporal
splitting
kalam
pulmon
massacres
cartoonist
tornadoes
engraved
monopoly
housemates
unopposed
bok
bism
cbe
dand
jamm
jokes
khod
lds
oste
wp
##cad
##yal
##jack
##alyp
stole
asa
plag
##eya
roe
amos
proves
quir
quaker
harb
westphalia
calib
slab
##heny
patches
##obas
donor
haitian
scheduling
obligation
bahia
malls
responding
ryder
jessie
enhanc
transcript
marrying
tutor
detailing
guangdong
iaaf
wholesale
luftwaffe
jia
tiff
t20
vila
##racts
##tas
##mis
##nag
##bay
##pike
##hea
##inement
##anagan
##athed
##ichen
##ieur
brink
brigham
amelia
australians
217
biomed
successors
229
freemason
halo
judah
gradient
commitments
sunlight
hooker
lesson
##irov
briggs
akbar
alternatives
lichen
kuhn
1764
aidan
mclaren
rhineland
tremend
brasileiro
enslaved
kier
zi
zhe
ال
##buch
##68
##69
##stick
##etown
reeves
isbn
##ovis
##quito
coaster
distress
presley
attachment
##ahar
quote
opus
colling
pais
docks
222
routing
##aldi
encirc
forewings
khm
caud
negot
entertainer
pleased
1753
dhabi
pigs
inquis
prostitute
hazardous
mixtape
deng
kk
nail
sida
sinn
tash
##map
##ın
anwar
##olese
##uram
##igence
##ayas
chag
chavez
beers
leung
partisans
disused
fein
blonde
mona
undercover
defences
harley
villains
anggun
infamous
shipbuilding
satire
hardcover
ambition
cables
determines
stephenson
glasses
advertised
alek
exercised
enlist
teddy
flavor
montenegr
fierc
accelerated
dartmouth
storytelling
unpublished
bain
cout
rie
##fus
##zcz
##pal
##anza
##olus
thal
forge
atkins
spill
spine
schoon
buffer
livery
1300
objected
myc
antique
authorised
convened
hillary
composing
browning
policeman
mandy
1771
transforming
poole
coward
##chenko
neurons
paso
guyana
rhythms
stretched
nepalese
ankara
ljubl
reassigned
alessandro
zombie
##boldt
panchayat
vuelta
oll
pile
##wit
##erun
##atel
##imoto
seize
arched
contention
assured
outlook
angular
facult
ambrose
##headed
felipe
burnett
37th
420
recipes
precinct
axel
definitive
spokane
criticisms
licenses
strokes
bugs
drowned
sperm
pueblo
relocate
foremost
chevrolet
##video
jozef
a3
courier
dillon
hott
wand
xml
##hak
##hevi
beeth
plunder
##odina
tramp
trams
clone
pept
goat
agg
canopy
##grades
undergone
endless
##ussen
213
burgh
holm
##liers
km²
practically
troph
pathways
dolls
subsidiaries
prospects
vivian
lakeland
cheaper
vowel
grazing
ereb
frustrated
motifs
restructuring
davenport
eber
hb
pins
##sum
##tel
##uw
##inform
##iones
alarm
conglomer
##estag
plagi
sears
suicides
shand
elk
mei
disturbed
##phin
northward
revital
annot
caliber
deleted
humboldt
##gett
saloon
##shah
castel
torque
##ajo
tarant
vanessa
lowered
payload
bernstein
##blower
utilize
##uven
coca
crystals
woolly
reprint
gwyn
##added
automobiles
gadget
kauf
aerodrome
swallow
versailles
boilers
bount
iod
kats
rana
seld
sint
vectors
##cur
##αν
##enk
##atre
inex
##oton
spiel
##uben
flaming
souven
warships
secondly
transplant
openings
219
campo
walnut
refined
refurb
multin
hostilities
combust
haas
badger
huskies
##hui
julien
esqu
ensured
surroundings
sabre
##illaume
1769
spectrosc
nikola
bundestag
##doors
promptly
gwen
validity
##pherson
convincing
weighing
insignia
konstantin
wexford
viaduct
thieves
peculiar
interdisciplinary
beethoven
fos
gow
hary
kro
nike
nude
qin
##vir
anj
##adena
rewrit
##agus
unmarried
##rios
seph
acm
##pered
twisted
drains
interf
deposed
smack
curtain
303
discretion
sonia
burrows
turnpike
loser
chinatown
##anooga
ferre
intervals
emerald
330
dispens
mandated
sympathy
hayward
letting
hatred
1640
requesting
alfredo
ugandan
corpse
mysteries
protagonists
turbines
pamela
symmetry
sindh
chattanooga
insurgents
destructive
remastered
coconut
caz
ccc
dok
nal
nub
zyg
##mot
##idu
##imus
seag
seap
sheila
phara
blown
preaching
electors
##ysburg
backward
##aean
archival
realised
##ije
hohen
separating
380
lasts
maximilian
mahm
scenarios
grief
intersects
yuen
clergyman
dusty
chestnut
pornography
##street
blessing
##thorpe
sheldon
aki
gans
hagen
nests
rolf
yves
##fig
##ionage
staud
stanton
##emn
##aggio
beans
prostate
##illand
##manship
contamination
filing
megal
guiding
aird
intermitt
##ierz
crude
geologist
justify
glorious
farr
hygi
animator
encoding
hardly
elevations
hartley
cooked
toni
sleeve
substituted
catching
congregational
laguna
ponte
rodrigo
myspace
hirosh
siberian
landowners
lepidoptera
metabolism
toilet
enclosure
pid
##matic
inel
##ouin
##enta
##ayam
byu
##avas
##arthen
marne
##endo
##gram
mek
buyer
minas
kne
sob
##iero
imports
geologic
addison
descript
auguste
214
patel
malac
visually
goldman
seville
veins
refuel
nominate
flynn
fulham
pleist
yellowish
klop
1713
restriction
hairy
symbolism
revolves
float
linguist
inventions
pontif
thoroughly
emilio
dicap
devastating
applicants
hormone
substrate
scandinavian
recycling
schleswig
moffat
saxophonist
veracruz
abdomen
hygiene
bk
cinn
hath
kite
pony
tg
vt
vain
wahl
zab
##czy
##four
##zong
##ог
##onite
##ouard
##acus
##idium
##unn
enn
prag
##arda
##ellidae
adorn
musket
fluct
knot
underworld
##ennis
teles
builds
##chev
seniors
morality
constitutes
saml
putin
expresses
mastered
banjo
wingers
admit
rosem
ramos
ensign
nagano
gettysburg
symphonic
gustaf
pyrene
reichs
prescribed
indirectly
##girl
surprisingly
acetyl
dusseld
ljubljana
##heviks
4x
cj
hec
tyn
tuf
uter
£3
##57
##onge
##thi
neb
leic
##ovian
playboy
##ucher
tepe
induction
##amped
blanco
##otham
remed
terre
annoy
yorker
efficacy
topography
shortlisted
initiation
propelled
urging
racers
godwin
psychoan
rhiz
dispatch
baronets
dinosaurs
1765
1767
whitish
nomencl
vibr
passionate
inhibitors
philanthropy
feathers
hanoi
jacqueline
smyrna
unnecessary
dicaprio
bfb
cep
hench
hailed
kappa
nero
sot
ubi
xian
##pen
##icum
##amel
##igate
scrib
##assium
##evo
subl
enduring
geo
mata
constance
landes
philips
discrete
pressures
##maid
silesian
textbooks
hospitality
rosenberg
charting
cabr
masked
automation
##iyah
packages
##ickson
mutant
1757
mongols
blooms
ornamental
seminar
epidem
penetration
tanner
hitchcock
peripheral
zubayr
cumbria
confiscated
orkney
metadata
cair
diz
fec
fuck
kuch
yer
zin
##nett
##pill
##acial
rework
rejects
##imet
suwa
grate
pepi
##ibel
offset
weights
regis
blitz
evid
##ollah
flick
##wehr
quota
armist
swami
continually
supportive
gradual
premio
hostages
vocabulary
microp
potassium
haifa
meanings
organizer
surfaced
dissol
clarkson
clinics
barbar
entrances
1718
worthington
magician
rumble
furnace
heiress
##klenburg
harmonica
razor
folding
lakshmi
vowels
bisc
dull
pows
uj
##ser
##tech
##edes
##alysis
##economic
##thia
deeds
##iflor
newborn
boon
knives
##upe
belts
meng
swear
canadiens
wrist
envoy
dominique
365
celebrates
lawsuits
eager
lgbtq
zeus
bicycles
hobby
enthusiastic
federico
ransom
beaumont
ether
hinder
pash
rss
u23
##aer
##sv
##cut
##px
##jer
##elly
foraging
atkinson
beec
plut
arising
##ograd
notices
pey
soup
arturo
tern
freak
broadband
liturgical
hamid
##ophobia
cabaret
hurst
straits
rabbin
1717
sedan
cooled
##frame
vegetable
anaheim
distributor
leopard
harvesting
disappointing
pledged
tartu
parthian
hawthorn
assyrian
pleistocene
caj
cache
gok
ginger
hays
loll
pumps
zac
##rab
##san
##sar
##yat
##lid
##jit
##inis
comte
##estos
##essen
arund
##ovia
brest
abused
parrot
maure
artem
estuary
interconn
defects
magna
justification
frey
squash
memo
hamas
assistants
copied
espionage
planting
accessories
escaping
32nd
rollins
trusts
bernie
pathology
rotor
miser
protestants
rabb
##ythe
welter
corey
ignor
donaldson
parameter
gravitational
gymnast
hutton
commemorated
societal
sarajevo
scattering
benedictine
astronomers
mongolian
##ogeneous
shrewsbury
leicestershire
crib
kult
khy
mav
nud
rl
sake
taur
##top
##nard
##vill
##67
##enham
##aty
##atter
anonym
uniqu
##ongo
worried
##gham
resett
contex
elsa
##eye
intercol
famed
barony
setup
generalized
corb
##enga
chey
everest
irrit
bienn
221
burr
donkey
balc
henrik
samantha
reno
gardiner
principally
embro
sequencing
470
dinamo
nagoya
fibre
bunch
linguists
jeremiah
cougars
deliberate
arbitration
clifton
antagonist
compassion
landslide
immortal
guggen
contexts
fiona
kog
kinet
lm
ours
ucc
##eous
##uaries
##pes
##kus
##isław
forfe
fraction
unter
##apat
exter
exagger
shk
shea
##ibol
coil
##weg
##ismo
maturity
218
211
avignon
##boa
sumatra
mala
occult
conducts
affinity
motive
benev
##worm
standardized
esco
340
42nd
oriente
advocating
hornets
kickoff
1740
favoured
emphasize
##dersfield
hazards
barnett
gymnasts
recalls
huddersfield
unpop
counseling
##bridges
redesigned
nizam
analysts
unexpectedly
wolverhampton
landowner
pancreatic
arrondissement
iroqu
pontifical
fx
nug
sall
vivid
##sf
##cell
##zai
##bad
##df
##jima
##heen
##erl
andalus
wasp
##iris
##estra
leuk
spoon
##icht
carriages
coher
reliance
##iked
##ileen
sof
invitational
demos
farrell
##ambe
africans
##ophil
scream
flyweight
oils
adjutant
hayden
siena
gangster
tags
illegally
fishermen
apostles
eduard
remarried
ezra
chimney
unconstit
crustace
resonance
smuggling
hiroshima
aleg
baird
dye
ith
k3
lx
lech
nv
##nant
inappropri
##itement
##ouche
##urah
##igl
##chwitz
abig
eddy
##adeh
guiller
geelong
##auss
supplier
patton
obey
glut
223
courtesy
marta
##cera
coppa
nightmare
violet
stadt
jericho
trusted
bhum
integrate
huntington
##iterated
##breaking
cowboy
mythological
graphs
brewster
monde
hinduism
risen
duggan
coincided
pilgrims
guerrero
leaked
rochdale
tattoo
pascal
metaphor
bournemouth
caretaker
yiddish
bakh
hards
kear
kral
ning
phel
rov
rih
zig
##gue
##41
##wari
##ilah
stans
##ayed
fris
clippers
worms
newest
indoch
##actor
weaving
somebody
somehow
telangana
##linson
currie
bestowed
patented
mclean
hyun
bankers
audrey
uncont
futsal
criticizing
accountant
cephal
cinematic
icons
ascension
pearce
friedman
richest
satisfaction
eclectic
nouve
monterey
tuscany
lviv
appreciated
jumper
gypsy
enjoys
staudinger
fass
gaw
igu
lenses
lsu
mung
##iks
##shan
##53
##mings
##lot
##wave
como
neh
leach
bryn
grains
grange
referees
##ibu
reddy
raft
waltham
disciple
##helle
circulated
macqu
potent
recognise
domination
purchases
dunedin
compilations
pinch
shaun
roofs
vernacular
shifts
kabul
xxx
facilitated
mysore
metallic
invasions
cascade
phylogenetic
skyscraper
overturned
electromagnetic
farther
guggenheim
2a
ait
cog
nolan
pets
tae
tilt
uly
vind
wain
##like
##amen
##steps
stout
stables
chab
##ulous
ate
##opod
##udad
spears
worcestershire
recher
incap
##izo
indent
reputed
schn
outf
##weiler
artworks
##atters
juno
supplements
booklet
convictions
purported
colorful
mccall
meaningful
mutiny
ventral
firmly
resisted
comparisons
conclude
djs
emphasizes
ogden
##schild
montevideo
mimi
elephants
vendors
sardinia
correlation
convenience
peacock
overhaul
dusseldorf
koy
mika
##mount
##log
##vale
##kova
##wife
toby
##omas
stocks
##oten
##oween
##unton
univ
##estones
clinc
##antz
manners
##ibles
blanch
##weig
wink
guillaume
swar
mathew
curb
redis
raises
sanitation
donnell
circulating
melville
papa
##ajara
admissions
ashore
odi
kazan
kamen
sellers
mentally
parallels
dietrich
oberliga
ough
##rophic
zoology
pardon
analytical
yokohama
alzheimer
bop
eut
ered
jod
rok
wiel
##oos
##uis
##pole
##jam
##jah
##arist
##ecost
##opal
##ocy
defer
spends
basins
##azu
estadio
subter
famine
emilia
busiest
ecumen
sonn
##uckle
primaries
##kien
exploded
##govern
faber
hoard
prediction
embark
##bonne
adjunct
lovely
negotiating
barnard
archbishops
inquir
earnings
mendoza
sheng
exceeding
chronological
seminole
chatter
javelin
bharat
andersen
##rification
hewitt
orchestras
bolsheviks
geschichte
redemption
bamb
foli
peck
v8
##hun
##hav
##zar
##kaya
##inely
##usions
hears
whales
##ocal
arun
##illas
spd
spurs
##ptive
abl
alliances
##ahs
##introd
##intyre
##annel
endowed
invite
telem
harcourt
superstar
infinity
periodic
veil
shoulders
sandwich
glover
lieb
revolutionaries
480
reciproc
ruben
adaptive
remixed
illegit
stratigrap
cecilia
certificates
##izzard
poisoning
obviously
brentford
practitioner
unemployed
overlap
schubert
bloomington
haryana
nomenclature
bite
ness
ragn
tid
yp
##game
##mt
topping
ala
congr
##uning
guo
novi
larson
campos
eastward
ecw
bret
triassic
humble
228
halft
clever
denial
assemblies
couns
mecklenburg
rainforest
noteworthy
##anthus
1748
scripture
python
scholarships
synthesizers
kathy
hypert
chloride
vineyards
rewarded
archery
yahoo
##forestation
volkswagen
odyssey
jammu
bose
jumps
mounts
neder
rte
ua
##rals
##cian
##fund
##inians
##enia
##atio
##reck
##adin
thug
reintrod
fra
ats
atroc
prow
brenda
marches
goh
##orna
alloc
blunt
guzman
##linear
landfall
delivers
duct
garbage
##ophila
priorities
dominate
charters
declares
mandolin
oxfordshire
sprinter
illustrators
tuition
griev
pronouns
crusaders
sudanese
manipulation
##assee
dolphin
supersed
nuevo
yusuf
##ablanca
##ynthesis
seizure
dismantled
prakash
collingwood
kher
mors
moul
nf
qur
uy
##gado
##yah
##kam
##kim
##itating
##ulse
unbeat
thatcher
aran
tru
shack
abst
carly
filters
servic
presiding
apology
##tenstein
slang
immin
##mined
populous
romani
romero
mergers
##ippo
participates
penned
venge
##trans
psychologists
indicator
cinder
directional
supplying
compliment
insurrection
1661
incumbents
fibers
bunny
pronunciation
retrieve
cbn
keyboardist
searched
inflammatory
frescoes
robbins
shepard
celestial
montenegrin
ddr
gama
guth
hild
nico
rbis
xp
yuc
zhen
##dag
##ær
##98
theo
##eled
strap
isid
alec
##osuke
brakes
compose
##endale
incub
intest
agost
cray
daylight
descending
conceded
churchyard
steward
humour
##plan
##planes
superliga
currents
sociologist
##ometry
traveller
takah
grounded
hua
osman
lifting
unlaw
calculations
grip
handsome
levant
favourable
coordinating
ngos
wolff
wonderland
guerre
stamped
stretches
wohl
lazar
simultaneous
bjork
middlesbrough
tentative
obliged
bratislava
newcomer
cylindrical
refurbished
multinational
dri
doses
fot
gail
gild
lour
rink
tamp
tsh
zal
##cus
##jic
##wes
##women
##isman
##adam
##leaf
asha
unle
clot
herd
##dering
shek
transn
junta
smol
modular
instituto
courtney
convinces
selecting
diaries
judd
audit
pennant
35th
safeg
lesions
lucius
optics
famously
cartridges
alfa
##radiol
deanery
##horses
harrisburg
denny
vegetarian
sulph
undertaking
heavenly
rhein
volcanoes
sejm
samsung
energetic
unavail
longitudinal
abigail
2em
60s
gina
kett
lange
nij
zack
##iard
##cp
##bill
##он
##eson
ingen
##ilated
forged
##ograms
manu
elastic
polk
defenc
saur
diverted
baloch
1830s
inspir
groom
60th
dispro
gothenburg
indicators
messiah
threatens
apartheid
fleetwood
bahad
boroughs
syntax
greyhound
lavender
foley
bourge
ecuadorian
rancho
agreeing
aristot
ciudad
mukher
wesleyan
symmetric
abbasid
exchanges
vickers
biochemistry
franciscan
abruptly
mielke
asbestos
squirrel
emancipation
fulton
##alypse
fw
yester
##xley
##dell
##wid
##inging
##sty
trunc
##ovascular
gru
marjor
##order
adi
tek
##issi
bett
retal
instability
quiz
opined
##ontas
avid
eastman
sumo
sumner
biologist
247
munch
businessmen
quezon
silas
##opsy
benes
homicide
hitter
inspiring
##atoire
##guer
renee
tallah
ferns
1747
fontaine
tumors
wedge
stefano
byzant
hacker
nouvel
disagreement
bolivian
shogun
impaired
tandem
excerpt
bif
bump
fist
kib
wop
##tur
##wark
##atone
##ersen
##igree
friction
##arty
manfred
abrams
allerg
##ricks
##ricular
quer
##erve
curv
obes
authorization
verona
narayan
separates
dispersion
anthologies
bao
bhatt
misunder
suffers
reinmuth
fuels
attendees
1756
ninety
veterinary
scranton
ponds
extracted
claudio
amidst
xinjiang
antisemitism
prejudice
cheyenne
guillermo
eid
hn
nts
ruk
tect
vign
##tus
##58
##nov
##bear
##ια
##aski
totti
##stroke
isil
##imm
bei
unused
leap
prab
spouse
marries
serena
offseason
fins
regents
decca
##text
maha
invites
##spe
##ismatic
slated
headline
raider
walther
##aughlin
##zew
eleodes
storylines
billie
markus
insights
auditions
penang
policemen
miracles
dispers
printers
warden
fernand
consulted
cavaliers
treasures
graphical
inherent
ugly
masonry
cheltenham
spartan
lighthouses
sloan
eryth
waikato
armistice
iroquois
dary
ict
ln
mf
ritch
sire
wip
##xia
##vara
##atia
##atical
##aras
##iculture
##ulas
##riya
severn
spars
spinal
appra
reggie
opium
perseus
delle
malone
##meister
independents
derive
galloway
sharpe
stevie
fairfield
bernardo
##iyama
industrialist
jesuits
tagore
kicking
disappro
prefectural
sugarcane
inductees
aggregator
telecom
lokomot
tetra
checks
##igarh
disappointment
pocah
mcmahon
overseeing
nostalg
deprived
nokia
giorgio
negotiation
retaliation
cil
gland
nid
pott
tile
tones
##iata
##tag
##lit
##edith
##utor
##andar
##ulk
##rius
trab
##uble
ade
tee
rooted
##grap
olds
moines
programmed
pawn
biennial
##zewski
announcers
mcne
mcbride
richter
madhya
sami
foreword
khat
separat
injuring
jurong
shrines
jumpers
1746
symphon
traject
1690
alleging
binds
commemoration
bertrand
muscles
prospective
ajax
simpler
spartak
vulnerability
misconduct
dharma
tianjin
gillespie
elongated
wrecked
schultz
dop
gide
jat
kali
viva
vapor
##oidea
##eis
##rok
reim
chik
suv
spence
compress
elton
musica
##ussy
redist
anyway
meredith
gladi
farn
statistic
approve
situ
talmud
groundwater
khark
federally
##huan
##useum
accountability
ariel
somerville
sensation
converg
bengals
retailer
pigeon
##halt
stratford
fayette
untitled
duffy
##ellschaft
maldiv
amalgamation
condensed
mollusca
archdeacon
gaddafi
welterweight
unconstitutional
apert
fad
gub
hing
wally
##lap
##journ
##wol
##arno
##iran
atari
##aval
arter
argy
compton
carcin
##ensky
meals
##alsa
lively
milestone
westwood
delicate
cheval
stepping
antenn
authoritarian
commandments
##iente
trader
projections
sourced
wentworth
travellers
horrors
sounding
willy
envision
sexy
tuning
collaborating
370
sundance
unlock
1648
peninsular
dependence
battleship
absorb
spartans
##brandt
pieter
melodic
flanked
lobbying
vertex
##integr
disguise
##────
vojv
conclusions
mesopotamia
interpreter
ineligible
1a
a4
aort
gaj
jut
kf
lied
tard
waff
##giving
##hous
##ат
##erd
##anam
anecd
##itures
##olm
ung
unr
compressed
elaine
parano
perak
disob
preface
genital
buyers
1720
smell
bari
creos
croft
collided
ava
loads
treats
investing
reservations
sync
39th
compiling
aeros
gabon
1714
steamer
sediments
1742
acoustics
forums
glaciers
intercity
neglect
marianne
rendition
kernel
oyster
##gorod
leroy
apocalypse
pamphlet
mourning
dmitry
qaeda
##ozoic
tremendous
clinched
halftime
aisle
fusc
nys
qm
tout
wond
zol
##9th
##staff
stig
##allah
##izio
caring
commended
elbow
desirable
upgrades
attribute
brod
impose
imposing
barlow
crashes
champagne
sled
extrac
walters
##vez
discus
arrange
presentations
purse
casablanca
argona
generous
madele
modernist
marketplace
ballpark
organizers
##oppers
bono
##legiate
suffrag
objections
archers
minimize
kerman
hanson
konrad
ninja
shirts
saharan
baronetage
voyages
anthropologist
tirana
exploited
flexibility
piston
##zynski
strangers
deception
backstroke
babylon
matteo
aesthetics
charlottesville
biomedical
unpopular
mukherjee
dorn
dhan
ike
lapt
naf
rory
volog
##rada
##aroo
chino
##abody
##oden
##ardia
##ovi
marche
resched
relativity
butte
edible
registers
assurance
##anck
qui
doherty
localized
305
richie
cyrill
sentencing
bayer
interventions
sarc
unitary
fairbanks
akin
##marked
##paid
lynsey
ayres
kathryn
##oplasm
highlighting
eisen
predictions
adjustment
##stedt
vassal
densely
diminished
disguised
showcased
apprenticeship
cuttings
auspices
intercollegiate
illegitimate
imminent
fjord
jy
nang
osp
sip
sama
tails
##moor
##vil
##rels
##ilon
##rophy
##chat
bea
##akan
trash
sco
commend
peabody
intu
schuster
becky
bliss
charming
accusing
swap
idle
calab
severity
concessions
patroll
224
goodwin
funer
francais
##marine
influx
negatively
sarat
ambitions
honoring
akron
38th
375
430
preserves
kurd
controllers
1716
nikon
decreases
precedent
mineswe
prolif
psychiatrist
vaccination
corridors
antiquities
mehta
ptol
luton
genealogical
bolshev
insurgency
middleton
adriatic
shipwrecks
grateful
aeg
bison
dots
lute
tast
tumb
yev
##fle
##xl
##bull
##iska
##amu
##adder
##otics
seo
grapes
maroon
flus
flaw
warlord
##enner
northbound
cramb
wellesley
milford
mainz
227
handles
palais
sevilla
264
freezing
woodrow
urgent
rupp
psi
montane
improper
pacif
mecca
microphone
omitted
##gregor
witches
shareholder
levine
pasadena
sahib
interfere
dysfunction
lucknow
voluntarily
sweeping
cynthia
emotionally
schaffer
periodicals
embarrass
miscellaneous
smackdown
cact
hrs
nant
nws
tis
##nation
##imov
##owice
enqu
claw
##ptions
notor
incidence
centimeters
peach
uphold
prescott
accra
establ
epist
continents
helens
merlin
irr
232
cleans
devin
crossroads
sunn
waller
##ramatta
410
calculate
saxe
spectral
admirals
1685
disciples
bunker
tatar
acknowledge
auschwitz
brackets
neglected
griffiths
disclosed
gersh
semiconductor
celtics
pyrenees
bourgeois
pocahontas
madeleine
euch
jens
mj
moc
mott
nb
vh
vance
woven
##fiction
chai
##andum
byrd
##ainen
exodus
spru
compelled
scull
inclined
##izi
##oryl
agust
disintegr
interiors
revive
saud
creations
internationale
216
##byn
portage
competent
topology
233
erg
rupt
cutter
termination
pedal
donegal
trailing
##khart
whitfield
grassro
yamato
breeders
laval
wuhan
sylvester
exploit
dockyard
steril
distributions
fulfilled
aguilar
##accur
horton
shakira
pledge
senegalese
evolving
amphithe
##film
spawned
remembrance
goalscorers
cardiovascular
acronym
fronts
mausoleum
fijian
cyrillic
mow
mpeg
rye
wield
wanna
##coll
##cini
##mid
##uates
inaccur
##iten
##stru
##acic
rees
##ayers
whig
##ovac
##mentation
marz
##rail
##issens
countdown
minsk
1730
##ologia
guiana
##icked
crore
moe
magde
##geri
mounting
frei
prima
litre
photon
positioning
ballroom
conserved
translate
darius
miracul
babu
##breaker
advisors
mercenary
aquarium
neutron
krai
galaxies
paraguayan
dixie
enrico
klopfer
balcony
inappropriate
nouveau
erit
glee
mabel
nino
nakh
o2
pw
rani
##fors
##jid
thistle
reformer
fries
chas
beit
##ocial
sewer
orte
orton
##arten
##geons
recoll
parramatta
##awat
meek
##weeney
##inders
waltz
protects
prototypes
labelled
fortification
montp
ferro
inspire
##boarding
akiva
mccoy
terminals
probation
heroine
benefited
fantas
conditional
encouragement
1570
ribe
quadrang
stereotypes
harmonic
seminars
distributing
forthcoming
possessing
searches
frigates
adulthood
spherical
tasmanian
conglomerate
rosemary
biennale
marjorie
tallahassee
bf
dino
fai
gown
mating
pena
rik
sway
tint
yoshi
##hoff
##fill
##fjord
##non
##kur
##ит
##aray
##itra
##roth
##irth
regress
chao
##ellum
ack
co2
parry
disg
##athlet
uploaded
outdoors
preschool
southbound
invarian
##undo
lobes
valenc
postdoc
##zee
##axis
detr
captures
weekday
panam
melch
espan
##oxy
ensued
odor
##alypt
41st
rogue
plea
altitudes
dolly
appealing
spotlight
1689
1670
deserted
nasr
dupless
bucket
filmmaking
lizards
slavs
alvaro
eclips
rothschild
parasite
cambodian
willingness
tacoma
##losure
umpire
##bottom
trophies
ritchie
bitch
erod
fanny
gork
menn
vows
wd
##bak
##lech
anac
##entiary
framing
chico
whisk
##ianna
##ifiable
abuses
elites
intending
flock
electrified
novo
saff
invaders
##ysław
owning
organising
eurobas
##bright
elek
dona
connie
virgil
romano
evenings
liturgy
halloween
funimation
petra
obsession
haar
pitches
frankenstein
ambus
reneg
pollen
dalmat
nikki
kinase
fordham
feminists
comedic
##ilitary
caucasian
sparrow
mclaughlin
prosperous
hoffmann
mediated
aviator
inflammation
aleksandr
cripp
traumatic
sinai
puzzles
erediv
eurobasket
cud
cai
fender
gage
heck
ions
jaz
yur
##cala
##zas
##moon
##acom
##idactylus
heer
prover
oracle
spies
truce
carv
intends
integer
weaker
locke
##ysh
swans
augmented
vargas
archaic
mueller
morrow
requiem
connector
##iento
judas
denote
generates
wooded
garry
violins
rowland
walled
hoover
despot
hungry
rhys
farmhouse
bounds
painful
rotary
misleading
senses
snowfall
narratives
##burne
grasses
gastro
loyola
assaulted
##ontinent
quartz
moderately
anatolia
jalal
kendall
weightlifters
oxidation
deteriorated
guadalajara
mushroom
legitimacy
encryption
tajikistan
bhumibol
yesterday
duplessis
boca
dung
eust
fute
fairs
lend
nai
p3
u2
vida
vascular
zed
##zb
##beth
##urf
##adle
congen
spanned
##icans
repression
disruption
offenders
footprint
foothills
footsteps
transverse
##inaikos
awarding
##thshire
swat
croy
biotechnology
billings
racehorses
luzon
##beg
haq
##entials
savo
##iyya
niche
978
reactiv
1644
ritter
serialized
bucur
pereira
endorsement
airfields
sauce
exhausted
expenditures
pivotal
appellate
obesity
establishes
cid
danced
kurs
pb
pty
sver
tory
##hole
##fen
##mur
##ecker
alders
pry
##illard
spani
trenches
shower
##ogon
bravery
##inee
recess
incest
##rao
intric
##awk
engag
subaru
formulated
##annis
calvert
histori
rada
empirical
researched
honore
munoz
cambridges
hostility
##ukan
insane
sato
urine
460
mornings
calculation
grassland
assessments
barnet
##rocław
pumping
gottingen
lamps
abbrev
rendez
archet
empowerment
goaltender
bahaʼi
giacomo
repository
plagued
unbeaten
eredivisie
bakers
mates
oise
yates
##tal
##pow
##ия
##erian
inuit
##stage
##aculate
##adj
##emma
plastics
##odar
enfield
shib
##ubu
recession
mano
carla
pea
schum
edouard
actin
overhe
overland
drained
wherever
imperson
quo
europ
severed
##indra
sums
##linger
prevailing
vij
staten
226
detector
berwick
palaces
economies
inflicted
hammers
costly
##mona
degener
sarawak
jurgen
1752
problematic
1719
riks
jaime
blew
highlanders
##ranged
canoeists
bessie
inverted
##ophyllum
schroder
scrutiny
bizarre
sentinel
magdeburg
cambridgeshire
fey
faint
lore
mma
sars
tabor
torne
##rush
##hos
##hma
##hoven
##fel
##dot
##olc
##rocess
##ayi
arises
leib
orion
##udo
clint
abusive
indict
indicted
parenth
parcel
outsp
warn
distillery
defect
larsson
calli
##ittle
slade
301
roadway
muir
salford
kei
limbs
100m
panath
seminal
torqu
louisa
turku
transporting
contracting
injust
sharif
45th
chemists
cebu
drafting
initiate
srin
horne
axle
fatigue
welt
alpes
anchorage
coincide
analogous
alderman
narciss
contaminated
inclusive
futebol
parenthood
baza
jig
jena
sels
tuck
zav
zhi
##mob
##lec
##once
##onians
##icle
##icuous
##ionale
##olt
arp
##iale
##ieve
pern
overture
attracts
grouping
armory
##hent
imb
curious
aven
raaf
irwin
solanum
furl
239
237
unionists
affirmed
humanist
denying
northernmost
inflores
insol
princely
psa
rowe
staffed
santana
memorandum
elevators
bombed
webber
contempt
bonap
collaborate
maharaja
wwii
4000
kickbox
gibb
dragged
culp
1734
tobias
reprised
tulane
ernesto
nesting
laserdisc
##proof
visconti
shrubs
summaries
convenient
hordern
shoreline
##wheel
sabotage
jewellery
convergence
dina
eel
ethern
jaff
lace
##yx
##hei
##orb
##arak
arjun
orang
sui
##ovka
recons
abkh
carth
coe
engra
upwards
consume
barrio
armin
##itsa
longitude
startup
programmer
typef
handel
238
researching
##colo
replaces
fireworks
insists
contraction
naturalized
galician
astor
babe
medicines
dissip
lorenz
kicker
nomadic
1662
mythical
dirk
diamondbacks
exceptionally
htm
encompassing
engraving
betrayed
rallies
compartment
seinfeld
metaphys
avalanche
mitochondrial
umayyad
combustion
khyber
indochina
creosote
grassroots
dickson
iphone
mounds
tiber
ym
anomal
togo
##imos
atoll
coma
trance
##ichael
##asses
canons
buellia
syri
willard
depressed
impart
apl
octagonal
discarded
##agoza
italianate
mosquito
pedigree
owls
conflicting
tripoli
steamship
reigns
1749
sorry
paramilitary
1737
dangers
pitchfor
prelate
sicilian
folks
breaststroke
sprinters
erika
laughing
artef
invertebrates
engagements
ethernet
aal
drey
fok
jog
lili
mapped
tama
uri
##gm
##gement
##vest
##ет
##aten
##iches
##oler
##leep
foref
rewards
fram
##akt
##seau
##ogra
##ucid
parr
##acho
disrupted
blak
##alee
livelihood
annih
hari
corrosion
lego
cheet
christi
##ylon
242
fielded
donate
modernization
melanch
toro
copp
sargent
emery
touches
lucien
dorm
messaging
suprem
recipe
baroness
sensing
diversion
gatherings
pantheon
bakery
1659
phenyl
sakur
exploits
beverley
yunnan
quietly
##ørn
bharatiya
featherweight
##occup
esteem
examiner
breweries
lathyrus
panathinaikos
aac
bids
dyer
kers
packs
papp
pills
tari
umar
##last
##lib
##wed
inject
forerun
##idon
shill
wors
##ostom
cobra
boz
disast
##ugan
monsoon
novgorod
transylvania
suppliers
matilda
harrow
lobb
##lingen
breck
malaya
##etted
biathlon
245
243
confessions
##naire
mcken
garment
bowers
immense
mansur
hemidactylus
meso
granville
horsesh
1708
fueled
barrage
comedies
crowded
substitution
scandals
accumulation
hilary
##runner
echoes
kobayashi
chengdu
relieve
orphanage
congolese
hijack
seychel
dendro
abortions
susceptible
telescop
macquarie
ought
unavailable
##athletes
##powder
gaud
hamb
hilly
jared
rv
zum
zod
##lik
##jans
##ık
##inch
##oros
##itives
rebo
arct
arenas
prist
##ovy
afrika
marr
##ucco
carver
cohes
coasts
aggrav
pertaining
formulation
##resses
strad
255
glider
righteous
watercol
##arsk
donetsk
louie
projecting
etr
motherwell
faa
##bao
##ariidae
325
rosie
hawkes
breakup
75th
connectivity
maxi
bridg
whitman
katz
conversely
nadia
1702
tanker
ridden
instructors
hangar
nanjing
sigism
commemorating
pubs
crucif
krem
checked
fatalities
intensified
khorasan
warbler
crustaceans
bsc
ect
eileen
fb
nfc
ndp
pisa
##vist
inad
stry
##robe
##istence
##riott
##abouts
manz
elf
disag
maison
winery
craters
gerais
divert
##engo
technician
viruses
278
hymen
derrick
raceway
##ijah
gunpowder
robson
policing
wilde
akira
bangor
splits
lemurs
gaunt
illustrate
##ranes
frogs
culinary
clerical
dresses
mohd
pentecost
ceded
registrar
pistols
flourished
caterpill
maccab
moisture
endeavour
improvised
incorrectly
spitfire
haupt
swindon
faculties
abkhaz
mckenzie
eq
kors
##rata
##fair
ane
plank
arrog
spire
shal
##astically
manson
abh
##ryl
apps
##athus
##orsk
outward
amrit
underwood
##amesh
airliner
##pha
provoked
laude
internment
extingu
moons
skies
cheung
techno
morales
nonlinear
nonfiction
265
litvin
##inoff
sita
##elez
watford
faults
robber
stripe
colonels
analogue
functioned
medications
confirming
crying
bearer
spectator
625
cassidy
bidding
thorpe
1642
prohibit
masonic
orbits
canonical
gifford
counselor
gemini
bjp
weren
gestapo
compatibility
resurrect
genealogy
contradict
magdalena
expenditure
erasmus
interfaces
refueling
unlawful
cip
dike
ehr
fuku
fatty
hogg
kiv
nara
pensions
vive
wt
##kent
##79
##øn
##eny
ansel
stil
##igy
shades
commenc
decid
quasi
##enched
##isma
calhoun
starch
langley
humili
downhill
royale
confessed
##oyan
propose
claimant
fundament
karel
chaplin
legislator
scholastic
hereford
bishopric
webpage
bordering
cavity
siegel
cornerback
hypot
1672
coden
mannerheim
encycloped
stereotyp
cognition
obstruct
obstetric
navigator
abolitionist
ochre
seaside
bloomberg
wynn
agrarian
hotspur
inconsistent
superseded
rescheduled
spruce
detriment
crucifix
950
bim
dian
dement
gators
hac
lush
pum
tilly
ull
zain
##itored
##amic
stell
##lea
isis
##agna
arca
superson
##ogl
acanth
##oused
##okawa
upward
genev
##forward
broom
capuch
saus
belo
malaga
meritor
glor
##screen
debbie
285
286
mcgr
etudes
southernmost
samoan
godfrey
##ajima
##liche
intervene
##office
pilip
##oxide
##yeh
jackets
astra
mccain
narration
sorted
##uvial
rudd
douglass
scripted
enjoying
1688
guinean
jarvis
josiah
optimization
vibration
jiu
gottfried
mateo
hodges
aguil
gracie
reluctantly
mitsub
amplifier
extradition
yachts
ferreira
proliferation
ck
ewing
jock
mith
##gia
##rase
##82
##hester
stigma
##rost
unpl
uneven
plun
arad
enrich
enigma
orph
##gha
##ucer
teg
relinqu
bled
fln
ama
southland
thematic
persecut
divides
finalized
antrim
moritz
halle
latif
readiness
motown
veritas
viewpoint
fortunes
textual
bullying
excels
##geny
credible
jimenez
likelihood
diptera
threaten
hourly
lyndon
vertices
submissions
concealed
proportions
predominant
supplemented
fenella
lansbury
aviators
puebla
grumman
engraver
520
cues
dough
e3
ioc
tink
uw
vitor
wie
yoon
zucker
##hope
##zko
##just
##khan
##atius
ine
##urr
##thalm
##tsch
unauthor
suarez
marguer
acacia
centrif
##ibe
scha
desires
##acea
overlord
transports
stray
majest
paterson
##rophe
sanitary
differed
##obacter
##haj
camar
routed
verified
alumnus
testify
wilkins
strikers
importantly
psycho
darby
rhone
reasonably
waver
44th
bibliothe
comparatively
nagorno
moonlight
1575
dodd
imaginary
inventors
mendez
gonzaga
patty
goddard
wikitable
gesture
scaled
aristocratic
##ophora
interrogation
prophecy
illuminated
ecoregion
excursion
gideon
bucuresti
ica
lull
pons
qad
tich
##ozy
##dian
##kg
##onium
##isches
##oui
isu
alkal
deuter
##esset
##abas
traps
affl
marital
##pted
manned
##ampus
##ibur
relying
edel
##iken
regal
outfield
warmer
##itty
telek
redund
youths
254
salim
biel
whitehead
##umna
confuc
refinery
graded
##ocrinus
friendlies
freeze
lightly
melting
##iscus
baylor
maternity
##toral
galv
galerie
wrestled
pictorial
primeira
ensures
microc
ghosh
1743
polygon
awk
nasir
maratha
havilland
##million
oberon
subtit
rectory
moldovan
exemption
switches
graeme
philanthropists
torpedoes
authentication
elliptic
diffusion
cigarette
nueva
mcdonnell
forcibly
bounty
cabrera
vojvodina
mitsubishi
cough
cows
jj
rave
##hoku
##zia
##bies
##74
##ouf
##olep
##ethan
##acity
ashe
##chn
heine
conse
##cea
prologue
marlins
##ucket
indira
parental
agon
phoe
asserts
monitored
##phrit
austen
redd
millwall
##ottir
glab
posing
##etting
superfamily
periodically
262
florent
totaled
##alde
rowan
hobo
believers
banquet
psychic
49th
pickering
sudbury
kimball
540
shelton
affiliations
axes
lectured
slowed
gamer
trait
rumours
1680
1651
bernardino
burgundy
beverage
cottages
medallist
marcelo
lukas
disturbance
templar
therese
acquaintance
wrestlemania
refriger
backlash
khodork
gansu
jailed
kato
lol
siam
sakh
##ratic
##calf
##mag
##vig
##pac
##kos
##anya
invern
anhalt
##store
##rox
##utants
chul
heel
##ulators
comune
##aryn
##ograf
##soe
scoot
manpower
cents
disreg
fines
regeneration
brody
1630
remot
imdb
lobe
valky
promo
stationary
stewards
302
glow
231
##gesch
288
massif
propell
totaling
greenway
##irchen
woodstock
semantic
ballistic
trott
torr
gunfire
rebound
rugged
drummers
##writing
embank
377
mandates
gao
danielle
allevi
amounted
porcup
responds
orthodoxy
fluores
cska
petersen
corrections
1738
gentry
kaplan
perpend
yielded
beverages
compensate
cesare
keefe
explanations
parasites
witchcraft
deportation
vcard
chrysler
humidity
awaiting
enthusiasts
bartholome
indefinitely
mavericks
congestion
tarantino
evidenced
ecumenical
irrational
fukuoka
commencement
eruption
hides
nme
ux
vuk
wishing
wrocław
##zk
##lach
##heit
##onial
##acional
fors
##igon
##champ
##isto
##ocative
sewing
lei
clav
carney
intra
##elda
intox
remedy
##spor
harrington
loops
jeep
volga
angered
253
258
culturally
##burst
cym
eratone
semitic
excitement
##iosity
dungeons
kaunas
touching
nazism
compiler
hartmann
fabian
bathing
examines
definite
dolores
miocene
gaston
yoruba
analytic
explosions
earnest
meyers
bleeding
sheriffs
simplicity
fateh
inhibition
eriksen
buttons
destroys
##william
awakening
ortega
perpendicular
eratoneura
bending
biff
eph
fief
gomes
lilian
miff
nip
pai
yos
zor
£10
##hov
##bling
##hex
##inz
##atos
##omics
##elves
##ecurity
##idic
##chal
##agos
ara
afflu
sermons
allot
##ruk
lao
slater
curacao
skid
raoul
respects
halves
republished
palms
activate
keating
selen
millionaire
differentiation
traverse
sniper
##ourses
macd
##ijn
mixes
montoya
consistency
screenings
columbian
esa
suspense
temperance
tsuk
doubling
shaan
1703
tendencies
1725
1735
yuki
towed
dupont
retreating
assigns
consolidate
configur
harpact
overlooked
abandonment
physiological
wnba
schweizer
ddt
rattles
##quisite
brabant
graffiti
postdoctoral
meritorious
khodorkovsky
810
hove
lena
nano
pank
pizz
rios
silt
zer
##inidae
##info
##asher
##aday
thou
onion
foreman
planck
exh
##ellations
polonia
amr
maze
##annes
smyth
##isei
bandits
malin
shortages
versatile
248
236
royalist
verbs
madd
henley
occupants
##develop
groß
darm
trainers
332
waited
tuned
dungeon
constructions
sequels
consuming
experimented
1711
680
##hanna
laden
admiration
1701
fluent
1722
##angelo
expectation
ingrid
mellon
blazers
nawab
jelly
glucose
paleontology
akademi
deutschland
schooner
atrocities
bahadur
nouvelle
610
fumb
lets
oax
u18
xer
yue
##gger
##rust
##aq
##masters
##bey
##eru
reigned
conch
serra
preached
locker
apo
metcalf
##lob
listened
##ouncing
slots
magnes
downing
purity
errone
fullback
popularized
melvin
haid
venk
sandor
capitalist
emerges
immaculate
hawkey
##azzi
47th
dissemin
##ropolis
haynes
compares
mercant
tablets
nymp
rhyme
theorist
1741
neuroscience
cancers
##build
1654
fisherman
##enoble
cosmos
cosmopol
couch
bootleg
archeological
cruelty
synchronized
cossack
monsieur
##━━━━
kavanaugh
wład
spectroscopy
extermin
recherche
aldershot
seychelles
3a
hoss
jn
kuc
wires
##sin
##f2
##wash
inge
##elis
##urry
##urbish
isl
chapp
##agrams
exams
##ipps
##gey
##ksh
grae
elgin
agar
deco
lining
norwood
monmouth
estradiol
poplar
mainline
demol
streamed
raided
##brate
##portion
empires
detachments
oppression
refurbish
greenfield
erad
articulated
gunner
boring
322
schedules
puff
mccon
##namara
bodied
overseen
##breaks
distinguishing
migratory
cooperate
gamec
knighted
baptized
assassins
hendrix
prosecuted
relevance
tranqu
kemal
disagreements
##ystok
perpetrators
babylonian
falsely
spontaneous
nissan
suriname
chaudh
congrat
bonaparte
pitchfork
disastrous
banc
buss
cister
heng
jou
kwan
pines
sorts
wap
##mic
##nake
##kola
##ła
##alone
andrey
##otis
alta
##opf
unm
unsc
leary
##akin
##ichord
clover
compelling
marques
##endi
resent
induce
blizzard
warns
##azione
##icke
albedo
retention
callahan
swam
idols
simons
concub
jeong
salaries
sonora
##shad
##appers
palazzo
floral
testimon
frontiers
bayern
monta
hoa
taxon
penelope
accessibility
digging
cellar
begum
khanate
pairing
1712
1728
##schule
dietary
wastewater
cumulative
ensembles
lazy
reorganisation
cabinets
titanic
toxicity
brachyp
iberian
brescia
nautical
incentives
michaels
tsunami
blanchard
vengeance
apertura
elektra
horseshoe
litvinov
bint
fencer
renn
ui
uf
wv
wiki
xiang
##cope
##eze
##foss
##yama
##lene
##dl
##3d
##wolf
##edi
##stani
##etum
##acar
##umal
trivia
notified
mani
caravan
contender
coated
##issible
interwar
annapolis
saeed
invading
westmor
demar
avenues
valves
eck
promenade
##cheon
257
christensen
##anao
duos
detectives
streetcar
requis
characterization
casp
processors
samson
micron
hover
olsen
digits
paste
earls
quarterbacks
approximation
logs
threads
ashken
sherlock
kirch
lynx
fashioned
napier
cadillac
konar
quantitative
brightness
soror
1656
spirituality
joshi
1621
kilometre
radicals
bogota
phosphoryl
petitioned
harpercoll
quarterfinal
oliveira
##iculous
fugitive
socioeconomic
decentral
siemens
bolshevik
harpercollins
620
glyn
ie
kep
kinn
mbe
nantes
rr
vec
vay
##hog
##lains
##kamp
##ев
##arism
##ivities
ong
##oct
sext
troll
shov
##ference
mariano
mariner
recount
##rax
##izhou
tej
ellington
##achan
disgr
americana
lineman
##hna
##web
schoolte
overr
crunch
##esee
emails
augusto
imitation
antic
##ylie
fars
249
241
moto
erwin
taxp
brownish
haber
khz
vanity
hospitalized
immersion
domino
toulon
kochi
akt
duran
kuy
arcadia
660
katy
911
polyg
riddle
exposing
scarc
weddings
paradigm
crafted
aubrey
goddesses
schmitt
chongqing
urbana
antigua
yvonne
asiatic
##issenschaft
cib
dard
erupted
ghent
hatt
jad
kess
kare
lse
tien
vb
##rion
##nom
##400
##76
##ич
##atable
inert
##icients
forb
##imat
exac
lez
spic
shaman
shaping
resum
centen
abi
##izon
indec
##acharya
offenses
##hny
overrun
guadel
famil
quan
##erness
simeon
villar
prevailed
308
superfic
##helial
##eshi
hamlin
italiana
karol
montes
bluegrass
injunction
galle
waist
##innon
ventilation
trumpeter
neurological
containers
corrected
dieter
##osphate
##lieb
chancellors
##oplane
apostle
chesterfield
##syth
pompe
govt
disliked
pomerania
coefficients
fidelity
panorama
oblique
awkward
cuck
eib
jams
rour
tull
##rative
##range
##lac
##vana
##heet
##onis
##arab
##arks
##alog
topp
tosc
##ecz
##static
thak
thier
##iram
isma
uniting
shag
##ellen
brant
grenoble
marley
carav
shepp
paratro
warship
attic
##ahua
1620
gee
terence
emory
systemic
##etsky
romney
objection
mukh
italic
##gestone
234
equitable
pala
connolly
introduct
##marnock
hoon
candle
sawyer
manufactures
koen
abbots
##oshima
folklor
pollutants
regulator
virtues
bathroom
leafs
endorsements
downloadable
poisoned
vaccines
enthusiast
gustavo
athena
acquainted
aeronautical
##iformesfamily
karlsru
iodine
pharaoh
envisioned
crambidae
reconsider
sigismund
orphans
marguerite
exacerb
ael
bored
ew
eocene
kaf
kami
nol
tse
tars
vp
##fur
##uper
##jes
##jos
##αρ
##ая
##inating
##elot
##amt
##urias
##ivas
unac
unex
##ococc
##apal
recounts
adren
##ollen
preca
mined
thrac
headlines
magu
##fulness
251
protections
solids
friar
295
greenberg
dermat
##gaon
susque
haem
khart
##olfo
absurd
hopper
boland
510
52nd
klond
experimentation
cantor
fabio
gibbons
737
1666
cooler
lacey
1729
prohibits
ligament
analyze
chihu
reinforce
bogdan
##human
gambia
saskatoon
marquette
anarchists
supplementary
distributors
mundo
cayman
ultras
ellipso
isabelle
dewey
thermodynamic
mahmoud
guthrie
laptop
abbreviation
bartholomew
mifflin
jok
lakh
mous
puc
wim
##laus
##para
##kr
##ouc
##otox
hepat
##agua
##hera
##alls
##iej
##ubi
parted
coats
roost
disarm
counters
flanagan
amit
##ribes
estud
##ressive
westport
##lination
lega
efficiently
malmo
discographies
##plate
##appan
confinement
infirm
263
louvre
proponent
multilingual
covert
semester
urg
destined
##ophile
liberated
intervened
##huis
laborers
stanisław
clarity
kyung
pursuits
bridgestone
visuals
dreaming
ignore
honourable
1704
1665
1664
saturdays
scarce
transitioned
vaults
pulls
propagation
sickness
parasitic
sacrifices
skept
gladys
disagreed
segregated
schafkopf
daphne
geographically
ubiquit
hive
jd
javan
koc
kiev
##gne
##moke
##vie
##pop
##enst
##isz
##ethy
##acola
##igated
##agl
deforestation
plen
##alliga
sponge
##oglo
mariana
partridge
indy
##ornis
appo
joanne
phyt
warp
warrington
##tone
brood
##icki
##onsky
##aira
corr
jeann
breuning
chefs
angu
seneca
postage
discogs
poses
videot
captives
272
realization
debuting
##imento
karak
##baena
keynes
psychotherapy
neckl
okayama
townshend
freedoms
kahn
dialog
##ranath
transforms
mp3
dvds
nicholls
1744
1667
summits
jordanian
branched
vasily
superiority
laureates
grenade
shepherds
recycled
rehearsal
nutrients
ortiz
mccormick
siegfried
newscast
cessna
procurement
rendezv
schumacher
deciduous
eater
fiv
hock
kott
nour
upps
##obs
##zak
##ед
##anter
inexp
##acet
##adium
##league
##irl
reestab
aly
alme
##opedia
wharton
deux
artery
suf
gris
grims
marius
##ignment
tweed
##ibor
##eys
musique
outgoing
amman
charley
drastically
betting
subun
##anko
##anno
lai
champaign
internacional
receip
avatar
tito
##ainted
brez
discount
burrough
confesses
silhou
catech
differentiate
goodwill
haa
chapels
cavern
dais
burnley
embodied
525
doubts
reflective
rabin
icf
cantons
regulating
drafts
konigs
unfav
svet
ngati
skinner
mystical
analyzing
guerra
thanksgiving
essayist
vidya
glyc
zimbabwean
superconduct
nasser
gossip
alsace
leaning
gaulle
subgenus
perceptions
thiruvan
oboe
uniquely
władysław
introductory
uppsala
b2
jem
kie
koll
p2
zulu
##chens
##zu
##kick
##од
anu
##owiec
conor
##oplan
lef
suites
##ovski
##ellin
rests
mangan
carleton
butch
disemb
edm
edict
##graph
webc
amade
##phs
barley
geophys
additive
chrome
delgado
philology
bremer
postc
topographic
olympiac
morale
specialising
silesia
##grounds
florian
##ographs
dutta
benoit
potts
olson
##toria
credentials
##lamation
hurley
terminate
sabbat
magnum
390
640
crowns
counteratt
mortal
vertically
gamble
ayala
journeys
ngc
fragile
##escens
anatol
evangelist
gonzales
gastropoda
listener
impressions
mimic
cristina
devotees
duckworth
cochrane
zionist
gyeong
gallantry
domenico
domesday
abducted
backdrop
pulmonary
wonders
genevieve
oaxaca
hyl
silla
zoning
##iaceae
##trey
##finder
##dad
[...]
